{
  "version": "1.0",
  "truncation": null,
  "padding": null,
  "added_tokens": [
    {
      "id": 0,
      "content": "<pad>",
      "single_word": false,
      "lstrip": false,
      "rstrip": false,
      "normalized": false,
      "special": true
    },
    {
      "id": 1,
      "content": "<unk>",
      "single_word": false,
      "lstrip": false,
      "rstrip": false,
      "normalized": false,
      "special": true
    },
    {
      "id": 2,
      "content": "<s>",
      "single_word": false,
      "lstrip": false,
      "rstrip": false,
      "normalized": false,
      "special": true
    },
    {
      "id": 3,
      "content": "</s>",
      "single_word": false,
      "lstrip": false,
      "rstrip": false,
      "normalized": false,
      "special": true
    }
  ],
  "normalizer": null,
  "pre_tokenizer": {
    "type": "ByteLevel",
    "add_prefix_space": false,
    "trim_offsets": true,
    "use_regex": true
  },
  "post_processor": {
    "type": "ByteLevel",
    "add_prefix_space": true,
    "trim_offsets": false,
    "use_regex": true
  },
  "decoder": {
    "type": "ByteLevel",
    "add_prefix_space": true,
    "trim_offsets": true,
    "use_regex": true
  },
  "model": {
    "type": "BPE",
    "dropout": null,
    "unk_token": null,
    "continuing_subword_prefix": null,
    "end_of_word_suffix": null,
    "fuse_unk": false,
    "byte_fallback": false,
    "ignore_merges": false,
    "vocab": {
      "<pad>": 0,
      "<unk>": 1,
      "<s>": 2,
      "</s>": 3,
      "!": 4,
      "\"": 5,
      "#": 6,
      "$": 7,
      "%": 8,
      "&": 9,
      "'": 10,
      "(": 11,
      ")": 12,
      "*": 13,
      "+": 14,
      ",": 15,
      "-": 16,
      ".": 17,
      "/": 18,
      "0": 19,
      "1": 20,
      "2": 21,
      "3": 22,
      "4": 23,
      "5": 24,
      "6": 25,
      "7": 26,
      "8": 27,
      "9": 28,
      ":": 29,
      ";": 30,
      "<": 31,
      "=": 32,
      ">": 33,
      "?": 34,
      "@": 35,
      "A": 36,
      "B": 37,
      "C": 38,
      "D": 39,
      "E": 40,
      "F": 41,
      "G": 42,
      "H": 43,
      "I": 44,
      "J": 45,
      "K": 46,
      "L": 47,
      "M": 48,
      "N": 49,
      "O": 50,
      "P": 51,
      "Q": 52,
      "R": 53,
      "S": 54,
      "T": 55,
      "U": 56,
      "V": 57,
      "W": 58,
      "X": 59,
      "Y": 60,
      "Z": 61,
      "[": 62,
      "\\": 63,
      "]": 64,
      "^": 65,
      "_": 66,
      "`": 67,
      "a": 68,
      "b": 69,
      "c": 70,
      "d": 71,
      "e": 72,
      "f": 73,
      "g": 74,
      "h": 75,
      "i": 76,
      "j": 77,
      "k": 78,
      "l": 79,
      "m": 80,
      "n": 81,
      "o": 82,
      "p": 83,
      "q": 84,
      "r": 85,
      "s": 86,
      "t": 87,
      "u": 88,
      "v": 89,
      "w": 90,
      "x": 91,
      "y": 92,
      "z": 93,
      "{": 94,
      "|": 95,
      "}": 96,
      "~": 97,
      "¡": 98,
      "¢": 99,
      "£": 100,
      "¤": 101,
      "¥": 102,
      "¦": 103,
      "§": 104,
      "¨": 105,
      "©": 106,
      "ª": 107,
      "«": 108,
      "¬": 109,
      "®": 110,
      "¯": 111,
      "°": 112,
      "±": 113,
      "²": 114,
      "³": 115,
      "´": 116,
      "µ": 117,
      "¶": 118,
      "·": 119,
      "¸": 120,
      "¹": 121,
      "º": 122,
      "»": 123,
      "¼": 124,
      "½": 125,
      "¾": 126,
      "¿": 127,
      "À": 128,
      "Á": 129,
      "Â": 130,
      "Ã": 131,
      "Ä": 132,
      "Å": 133,
      "Æ": 134,
      "Ç": 135,
      "È": 136,
      "É": 137,
      "Ê": 138,
      "Ë": 139,
      "Ì": 140,
      "Í": 141,
      "Î": 142,
      "Ï": 143,
      "Ð": 144,
      "Ñ": 145,
      "Ò": 146,
      "Ó": 147,
      "Ô": 148,
      "Õ": 149,
      "Ö": 150,
      "×": 151,
      "Ø": 152,
      "Ù": 153,
      "Ú": 154,
      "Û": 155,
      "Ü": 156,
      "Ý": 157,
      "Þ": 158,
      "ß": 159,
      "à": 160,
      "á": 161,
      "â": 162,
      "ã": 163,
      "ä": 164,
      "å": 165,
      "æ": 166,
      "ç": 167,
      "è": 168,
      "é": 169,
      "ê": 170,
      "ë": 171,
      "ì": 172,
      "í": 173,
      "î": 174,
      "ï": 175,
      "ð": 176,
      "ñ": 177,
      "ò": 178,
      "ó": 179,
      "ô": 180,
      "õ": 181,
      "ö": 182,
      "÷": 183,
      "ø": 184,
      "ù": 185,
      "ú": 186,
      "û": 187,
      "ü": 188,
      "ý": 189,
      "þ": 190,
      "ÿ": 191,
      "Ā": 192,
      "ā": 193,
      "Ă": 194,
      "ă": 195,
      "Ą": 196,
      "ą": 197,
      "Ć": 198,
      "ć": 199,
      "Ĉ": 200,
      "ĉ": 201,
      "Ċ": 202,
      "ċ": 203,
      "Č": 204,
      "č": 205,
      "Ď": 206,
      "ď": 207,
      "Đ": 208,
      "đ": 209,
      "Ē": 210,
      "ē": 211,
      "Ĕ": 212,
      "ĕ": 213,
      "Ė": 214,
      "ė": 215,
      "Ę": 216,
      "ę": 217,
      "Ě": 218,
      "ě": 219,
      "Ĝ": 220,
      "ĝ": 221,
      "Ğ": 222,
      "ğ": 223,
      "Ġ": 224,
      "ġ": 225,
      "Ģ": 226,
      "ģ": 227,
      "Ĥ": 228,
      "ĥ": 229,
      "Ħ": 230,
      "ħ": 231,
      "Ĩ": 232,
      "ĩ": 233,
      "Ī": 234,
      "ī": 235,
      "Ĭ": 236,
      "ĭ": 237,
      "Į": 238,
      "į": 239,
      "İ": 240,
      "ı": 241,
      "Ĳ": 242,
      "ĳ": 243,
      "Ĵ": 244,
      "ĵ": 245,
      "Ķ": 246,
      "ķ": 247,
      "ĸ": 248,
      "Ĺ": 249,
      "ĺ": 250,
      "Ļ": 251,
      "ļ": 252,
      "Ľ": 253,
      "ľ": 254,
      "Ŀ": 255,
      "ŀ": 256,
      "Ł": 257,
      "ł": 258,
      "Ń": 259,
      "à¤": 260,
      "à¨": 261,
      "Ġà¨": 262,
      "à©": 263,
      "à¥": 264,
      "Ġà¤": 265,
      "Ġt": 266,
      "he": 267,
      "à¦": 268,
      "Ġo": 269,
      "Ġa": 270,
      "à¤¾": 271,
      "¿½": 272,
      "ï¿½": 273,
      "àª": 274,
      "in": 275,
      "Ġthe": 276,
      "à¨¾": 277,
      "er": 278,
      "on": 279,
      "à´": 280,
      "re": 281,
      "ti": 282,
      "Ġof": 283,
      "à¤°": 284,
      "Ġs": 285,
      "en": 286,
      "à¨°": 287,
      "à©Ģ": 288,
      "ed": 289,
      "à¤¿": 290,
      "à¥ĩ": 291,
      "ï¿½ï¿½": 292,
      "à¤ķ": 293,
      "Ġp": 294,
      "al": 295,
      "Ġb": 296,
      "is": 297,
      "nd": 298,
      "à°": 299,
      "à¥į": 300,
      "or": 301,
      "Ġc": 302,
      "à©ĩ": 303,
      "tion": 304,
      "à®": 305,
      "es": 306,
      "Ġf": 307,
      "..": 308,
      "Ġin": 309,
      "it": 310,
      "at": 311,
      "à¤¯": 312,
      "à¨¤": 313,
      "à¤¨": 314,
      "à¨¿": 315,
      "à¤¤": 316,
      "à¥Ģ": 317,
      "à²": 318,
      "Ġw": 319,
      "Ġd": 320,
      "an": 321,
      "ic": 322,
      "ar": 323,
      "àµ": 324,
      "à«": 325,
      "ing": 326,
      "à¨ķ": 327,
      "à¨¸": 328,
      "Ġà¤ķ": 329,
      "Ġto": 330,
      "à¨¨": 331,
      "ent": 332,
      "Ġm": 333,
      "à¤¸": 334,
      "âĢ": 335,
      "Ġà¦": 336,
      "à¬": 337,
      "Ġand": 338,
      "ec": 339,
      "à¤Ĥ": 340,
      "Ġà¨¦": 341,
      "ro": 342,
      "Ġàª": 343,
      "à§": 344,
      "Ġbe": 345,
      "à¨Ĥ": 346,
      "Ġre": 347,
      "à¨¦": 348,
      "à©±": 349,
      "Ġ1": 350,
      "à¨²": 351,
      "à¤®": 352,
      "Ġor": 353,
      "Ġà¨¸": 354,
      "as": 355,
      "Ġ(": 356,
      "à¤²": 357,
      "à¥ĭ": 358,
      "Ġà¨ķ": 359,
      "à¤µ": 360,
      "à©°": 361,
      "ĠA": 362,
      "ĠC": 363,
      "à¤¹": 364,
      "à¨µ": 365,
      "à¨¹": 366,
      "ation": 367,
      "le": 368,
      "ou": 369,
      "à¤ª": 370,
      "Ġe": 371,
      "à¦¾": 372,
      "ĠS": 373,
      "....": 374,
      "à¥¤": 375,
      "Ġn": 376,
      "Ġà¨¨": 377,
      "ment": 378,
      "Ġth": 379,
      "à©ĭ": 380,
      "ce": 381,
      "àµį": 382,
      "à¯": 383,
      "Ġà¨ħ": 384,
      "Ġà¨¹": 385,
      "all": 386,
      "Ġsu": 387,
      "ï¿½ï¿½ï¿½ï¿½": 388,
      "à¨Ĩ": 389,
      "à¤¦": 390,
      "Ġfor": 391,
      "Ġh": 392,
      "om": 393,
      "à¨®": 394,
      "àª¾": 395,
      "Ġl": 396,
      "Ġsh": 397,
      "Ġà¤¸": 398,
      "Ġï": 399,
      "ll": 400,
      "id": 401,
      "ĠT": 402,
      "Ġan": 403,
      "à±": 404,
      "Ġu": 405,
      "à©Ī": 406,
      "Ġà¨¿": 407,
      "à©Ĥ": 408,
      "ct": 409,
      "à¤§": 410,
      "Ġby": 411,
      "à©ģ": 412,
      "ay": 413,
      "Ġ2": 414,
      "ate": 415,
      "ch": 416,
      "à¨ľ": 417,
      "ĠI": 418,
      "st": 419,
      "Ġà´": 420,
      "ers": 421,
      "ut": 422,
      "Ġas": 423,
      "ve": 424,
      "ot": 425,
      "pp": 426,
      "Ġcon": 427,
      "Ġà¨ľ": 428,
      "à¦°": 429,
      "à¨Ł": 430,
      "à¤Ĺ": 431,
      "à§ĩ": 432,
      "Ġshall": 433,
      "__": 434,
      "à¨ļ": 435,
      "Ġà¨µ": 436,
      "à¤ľ": 437,
      "Ġis": 438,
      "à¨¼": 439,
      "Ġpro": 440,
      "à¨¾à¨Ĥ": 441,
      "Ġà¨ĩ": 442,
      "à¨ª": 443,
      "il": 444,
      "ĠP": 445,
      "ur": 446,
      "Ġï¿½": 447,
      "se": 448,
      "Ġà¤ħ": 449,
      "Ġon": 450,
      "ion": 451,
      "Ġv": 452,
      "ad": 453,
      "im": 454,
      "à¥ģ": 455,
      "à¨Ī": 456,
      "--": 457,
      "à¨£": 458,
      "Ġà¤ª": 459,
      "Ġà¨ª": 460,
      "ĠR": 461,
      "Ġg": 462,
      "Ġ19": 463,
      "Ġà°": 464,
      "ith": 465,
      "à¨Ĺ": 466,
      "à¤ļ": 467,
      "ver": 468,
      "ul": 469,
      "ĠG": 470,
      "her": 471,
      "à¤ı": 472,
      "Ġthat": 473,
      "à´¿": 474,
      "Ġany": 475,
      "à«ĩ": 476,
      "ter": 477,
      "ri": 478,
      "Ġà¤®": 479,
      "àŃ": 480,
      "à¥Ī": 481,
      "à¯į": 482,
      "fic": 483,
      "........": 484,
      "Ġwh": 485,
      "ĠD": 486,
      "Ġwith": 487,
      "Ġà®": 488,
      "ection": 489,
      "am": 490,
      "Ġapp": 491,
      "à³": 492,
      "à¨§": 493,
      "à©Ĥà©°": 494,
      "ab": 495,
      "àª°": 496,
      "Ġà¨°": 497,
      "et": 498,
      "ĠM": 499,
      "Ġà¤¹": 500,
      "à¨¬": 501,
      "nder": 502,
      "ow": 503,
      "à¤£": 504,
      "Ġex": 505,
      "Ġà¨¤": 506,
      "à¨¿à©±": 507,
      "ted": 508,
      "ĠThe": 509,
      "ir": 510,
      "00": 511,
      "à¤¬": 512,
      "Ġà¨®": 513,
      "ity": 514,
      "âĢ¦": 515,
      "ly": 516,
      "à¤¶": 517,
      "Ġà¨²": 518,
      "qu": 519,
      "Ġ3": 520,
      "ĠB": 521,
      "à¥Ĥ": 522,
      "à¦¨": 523,
      "Ġà¤ľ": 524,
      "ure": 525,
      "Ġunder": 526,
      "ĠN": 527,
      "à«į": 528,
      "ain": 529,
      "ess": 530,
      "Ġà¨ī": 531,
      "à´ķ": 532,
      "à¦¿": 533,
      "Ġsuch": 534,
      "if": 535,
      "Ġde": 536,
      "Ġnot": 537,
      "ig": 538,
      "à¤Ł": 539,
      "tr": 540,
      "ol": 541,
      "ther": 542,
      "àª¨": 543,
      "à¤¥": 544,
      "Ġà¤¨": 545,
      "ĠO": 546,
      "âĢ¦âĢ¦": 547,
      "à«Ģ": 548,
      "od": 549,
      "Ġà¬": 550,
      "Ġïģ": 551,
      "ĠE": 552,
      "and": 553,
      "Ġà¤¯": 554,
      "ge": 555,
      "Ġà²": 556,
      "Ġit": 557,
      "âĢį": 558,
      "Ġà¨ħà¨¤": 559,
      "res": 560,
      "our": 561,
      "ant": 562,
      "Ġ0": 563,
      "à±į": 564,
      "em": 565,
      "Ġcom": 566,
      "Ġmay": 567,
      "à´¨": 568,
      "ĠAct": 569,
      "Ġr": 570,
      "Ġà¤µ": 571,
      "à´¤": 572,
      "àµģ": 573,
      "à¥ĩà¤Ĥ": 574,
      "ĠF": 575,
      "ect": 576,
      "ks": 577,
      "ĠH": 578,
      "Ġsub": 579,
      "end": 580,
      "Ġà¨¬": 581,
      "____": 582,
      "à©į": 583,
      "over": 584,
      "Ġà¤¿": 585,
      "à¤·": 586,
      "ud": 587,
      "iv": 588,
      "rom": 589,
      "Ķà¤°": 590,
      "ich": 591,
      "Ġà¤ī": 592,
      "os": 593,
      "Ġwhich": 594,
      "à¤Ń": 595,
      "à¦¬": 596,
      "Ġac": 597,
      "à°¿": 598,
      "Ġà¨ķà¨°": 599,
      "àªµ": 600,
      "ĠâĢ": 601,
      "Ġ[": 602,
      "à´¾": 603,
      "Ġà¤¦": 604,
      "um": 605,
      "à¤ħ": 606,
      "Ġfrom": 607,
      "Ġà¨Ĺ": 608,
      "Ġà¤¤": 609,
      "la": 610,
      "19": 611,
      "able": 612,
      "Ġper": 613,
      "à¦ķ": 614,
      "ak": 615,
      "mit": 616,
      "ance": 617,
      "à´¯": 618,
      "Ġst": 619,
      "ard": 620,
      "Ġà¤Ĩ": 621,
      "us": 622,
      "Ġà¤°": 623,
      "à¦¤": 624,
      "oun": 625,
      "ld": 626,
      "ated": 627,
      "Ġ4": 628,
      "à®¿": 629,
      "Ġhe": 630,
      "Ġ'": 631,
      "==": 632,
      "un": 633,
      "Ġother": 634,
      "overn": 635,
      "àª¤": 636,
      "à¨ħ": 637,
      "Ġwas": 638,
      "à¤ķà¤°": 639,
      "ĠL": 640,
      "ï¿½ï¿½ï¿½ï¿½ï¿½ï¿½ï¿½ï¿½": 641,
      "sp": 642,
      "Ġthis": 643,
      "ire": 644,
      "Ġat": 645,
      "à¨ĩ": 646,
      "ore": 647,
      "ac": 648,
      "th": 649,
      "àª®": 650,
      "ĠSt": 651,
      "àªĤ": 652,
      "lic": 653,
      "á¾": 654,
      "per": 655,
      "erson": 656,
      "Ãī": 657,
      "ii": 658,
      "à«ĭ": 659,
      "à¨ĸ": 660,
      "Ġare": 661,
      "à®¤": 662,
      "Ġà¨Ĩ": 663,
      "ase": 664,
      "ence": 665,
      "Ġprov": 666,
      "ary": 667,
      "Ġïĥ": 668,
      "à¦²": 669,
      "ĠGovern": 670,
      "ĠIn": 671,
      "à¨¯": 672,
      "Ġ5": 673,
      "ci": 674,
      "----": 675,
      "à¥ĭà¤Ĥ": 676,
      "ê¯": 677,
      "à¨¡": 678,
      "tit": 679,
      "à¤ĸ": 680,
      "Ġà¨ĩà¨¸": 681,
      "à¯ģ": 682,
      "sion": 683,
      "pl": 684,
      "à´°": 685,
      "à¤¡": 686,
      "Ġno": 687,
      "ord": 688,
      "à°¾": 689,
      "erv": 690,
      "Ġ)": 691,
      "Ġperson": 692,
      "art": 693,
      "Ġà¤ķà¤°": 694,
      "ĠGovernment": 695,
      "ee": 696,
      "fer": 697,
      "mis": 698,
      "à¨ı": 699,
      "Ġdis": 700,
      "................": 701,
      "ourt": 702,
      "ÃĢ": 703,
      "Ġà¤Ķà¤°": 704,
      "à°°": 705,
      "ub": 706,
      "Ġà¤¬": 707,
      "ave": 708,
      "hor": 709,
      "est": 710,
      "ision": 711,
      "à©ĭà¨Ĥ": 712,
      "à¨°à¨¤": 713,
      "Ġle": 714,
      "à±ģ": 715,
      "ï¿½ï¿½ï¿½": 716,
      "à°Ĥ": 717,
      "àªķ": 718,
      "Ġà¦¿": 719,
      "ĠCom": 720,
      "à®ķ": 721,
      "ĠÂ": 722,
      "à°¨": 723,
      "àŃį": 724,
      "à´Ł": 725,
      "àª¯": 726,
      "à§Ł": 727,
      "Ġ20": 728,
      "Ġà¨²à¨Ī": 729,
      "ĠJ": 730,
      "uthor": 731,
      "ear": 732,
      "àª¿": 733,
      "ill": 734,
      "Ġint": 735,
      "ïģ": 736,
      "du": 737,
      "à´ª": 738,
      "Ġad": 739,
      "ice": 740,
      "ĠNo": 741,
      "à¤Ī": 742,
      "Ġàªķ": 743,
      "Ġthere": 744,
      "ied": 745,
      "der": 746,
      "Ġall": 747,
      "ru": 748,
      "gis": 749,
      "à³į": 750,
      "ax": 751,
      "Ġ\"": 752,
      "ade": 753,
      "ort": 754,
      "ĠW": 755,
      "ould": 756,
      "ber": 757,
      "à²¿": 758,
      "ount": 759,
      "Ġhas": 760,
      "ame": 761,
      "Ġsection": 762,
      "ans": 763,
      "ition": 764,
      "à©Ģà¨Ĥ": 765,
      "ĠïĤ": 766,
      "âĢĶ": 767,
      "20": 768,
      "act": 769,
      "red": 770,
      "age": 771,
      "Ġacc": 772,
      "Ġen": 773,
      "Ġà¤ı": 774,
      "àµĨ": 775,
      "tive": 776,
      "ally": 777,
      "Ġ-": 778,
      "ep": 779,
      "Ġsp": 780,
      "Ġà¦ı": 781,
      "ĠU": 782,
      "à¬¾": 783,
      "Ġà¤²": 784,
      "Ġy": 785,
      "cl": 786,
      "à¦¦": 787,
      "Ġi": 788,
      "ention": 789,
      "à²°": 790,
      "ĠState": 791,
      "Ġwhe": 792,
      "Ġà¦ķ": 793,
      "Ġj": 794,
      "Ġcase": 795,
      "gh": 796,
      "stit": 797,
      "Ġ6": 798,
      "ties": 799,
      "à¨¥": 800,
      "à¬¿": 801,
      "Ġal": 802,
      "ue": 803,
      "ĩà¤¸": 804,
      "Ġcomp": 805,
      "Ġà¨ĩà¨¹": 806,
      "Ġcont": 807,
      "ĠCourt": 808,
      "ap": 809,
      "ict": 810,
      "à¤¯à¤®": 811,
      "Ġà¤Ĺ": 812,
      "oc": 813,
      "ction": 814,
      "à¦®": 815,
      "oll": 816,
      "Ġà¨Ĳ": 817,
      "Ġà¨¨à¨¹": 818,
      "à¬°": 819,
      "aid": 820,
      "à¤°à¤ķ": 821,
      "à®¾": 822,
      "ations": 823,
      "Ġbeen": 824,
      "Ġme": 825,
      "orm": 826,
      "tic": 827,
      "ĠÎ": 828,
      "op": 829,
      "ff": 830,
      "âĢ¦âĢ¦âĢ¦âĢ¦": 831,
      "ution": 832,
      "mitted": 833,
      "ail": 834,
      "rib": 835,
      "à¨Ĩà¨°": 836,
      "à¤ī": 837,
      "el": 838,
      "ip": 839,
      "à²¦": 840,
      "à©Īà¥¤": 841,
      "Ġhis": 842,
      "Ġhave": 843,
      "âĢĿ": 844,
      "à¨«": 845,
      "Ġà¤Ń": 846,
      "à®Ł": 847,
      "à´Ĥ": 848,
      "mission": 849,
      "Ġ7": 850,
      "àª²": 851,
      "à¤¾à¤Ĥ": 852,
      "Ġif": 853,
      "ial": 854,
      "ĠÎŃ": 855,
      "Ġag": 856,
      "à¦¾à§ĩ": 857,
      "ist": 858,
      "à®ª": 859,
      "Ġàªħ": 860,
      "Ġoffic": 861,
      "à¨Ń": 862,
      "Ġresp": 863,
      "Ġrec": 864,
      "11": 865,
      "Ġch": 866,
      "Ġmade": 867,
      "Ġtr": 868,
      "igh": 869,
      "ffic": 870,
      "Ġà¨ķà¨°à¨¨": 871,
      "kj": 872,
      "ie": 873,
      "Ġà¤ªà¤°": 874,
      "ĠRe": 875,
      "________": 876,
      "à°²": 877,
      "à¤Ĩ": 878,
      "),": 879,
      "Ġà¨ļ": 880,
      "Ġam": 881,
      "10": 882,
      "ell": 883,
      "oin": 884,
      "ime": 885,
      "Ġx": 886,
      "Ġorder": 887,
      "ĠØ": 888,
      "Ġpre": 889,
      "ag": 890,
      "ose": 891,
      "ĠInd": 892,
      "uthority": 893,
      "à´²": 894,
      "pos": 895,
      "à¨ī": 896,
      "à®°": 897,
      "ments": 898,
      "à«ģ": 899,
      "Ġpur": 900,
      "ĠV": 901,
      "à²¾": 902,
      "Ġim": 903,
      "à´®": 904,
      "ided": 905,
      "Ġspec": 906,
      "Ġà¦Ĩ": 907,
      "ty": 908,
      "à¤ªà¤°": 909,
      "ia": 910,
      "Ġun": 911,
      "à©Į": 912,
      "aw": 913,
      "fore": 914,
      "Ġdec": 915,
      "Ġso": 916,
      "à¤¯à¤ķ": 917,
      "Ġcons": 918,
      "ign": 919,
      "Ġtime": 920,
      "à³ģ": 921,
      "tific": 922,
      "ous": 923,
      "fter": 924,
      "à¤¾ï¿½": 925,
      "à©ģà©±": 926,
      "rov": 927,
      "à¤°à¤¤": 928,
      "Ġ8": 929,
      "und": 930,
      "Ġpres": 931,
      "ies": 932,
      "Ġapplic": 933,
      "Ġserv": 934,
      "eal": 935,
      "Ġpay": 936,
      "à´µ": 937,
      "Ġà¨Ń": 938,
      "Ġyear": 939,
      "à©Ģà¥¤": 940,
      "âĢĻ": 941,
      "à¨ķà¨°": 942,
      "ass": 943,
      "à°ķ": 944,
      "Ġà¦¸": 945,
      "àª¾àªĤ": 946,
      "à¤¸à¤ķ": 947,
      "à²¨": 948,
      "ules": 949,
      "so": 950,
      "ust": 951,
      "ib": 952,
      "à¤¨à¤ķ": 953,
      "ĠCh": 954,
      "Ġ195": 955,
      "Ġprovision": 956,
      "à¤¾à¤¿": 957,
      "use": 958,
      "à¨ķà¨¸": 959,
      "Ġrequ": 960,
      "oy": 961,
      "ine": 962,
      "Ġà¨ħà¨ª": 963,
      "à¦¸": 964,
      "Ġà¨īà¨¸": 965,
      "ost": 966,
      "à´±": 967,
      "Ġem": 968,
      "of": 969,
      "ĠK": 970,
      "Ġ9": 971,
      "Ġds": 972,
      "ree": 973,
      "à¥Ģà¤Ĥ": 974,
      "à®®": 975,
      "Ġàª¸": 976,
      "ond": 977,
      "à²¤": 978,
      "kk": 979,
      "tain": 980,
      "ise": 981,
      "ide": 982,
      "ach": 983,
      "Ġà¨§": 984,
      "gul": 985,
      "à¨°à¨Ł": 986,
      "av": 987,
      "à®±": 988,
      "Ġman": 989,
      "che": 990,
      "à¦ĩ": 991,
      "Ġar": 992,
      "Ġà¨¸à¨ķ": 993,
      "àª¦": 994,
      "à¤¤à¤°": 995,
      "Ġà¦ħ": 996,
      "à¦ª": 997,
      "ork": 998,
      "Ġpr": 999,
      "up": 1000,
      "Ġàªª": 1001,
      "Ġà¨«": 1002,
      "section": 1003,
      "ĠàªĨ": 1004,
      "à¦Ł": 1005,
      "Ġab": 1006,
      "Ġqu": 1007,
      "à¤Ķà¤°": 1008,
      "Ġrep": 1009,
      "12": 1010,
      "AR": 1011,
      "à¦¯": 1012,
      "ĠâĢľ": 1013,
      "iod": 1014,
      "Ġà¤¶": 1015,
      "Ġà¨ĸ": 1016,
      "à¯Ī": 1017,
      "icture": 1018,
      "à§Ģ": 1019,
      "Ġpicture": 1020,
      "Ġ<": 1021,
      "OR": 1022,
      "Ġ.": 1023,
      "ces": 1024,
      "ish": 1025,
      "à¨ķà¨¤": 1026,
      "à²²": 1027,
      "clud": 1028,
      "form": 1029,
      "ÒĿ": 1030,
      "à®©": 1031,
      "ts": 1032,
      "Ġà¤ħà¤¨": 1033,
      "à¨¤à¨°": 1034,
      "Ġà¤ĩà¤¸": 1035,
      "ory": 1036,
      "ploy": 1037,
      "irect": 1038,
      "à¤¾à¥¤": 1039,
      "à¨¿à©°": 1040,
      "II": 1041,
      "ĠOffic": 1042,
      "Ġà¤ħà¤§": 1043,
      "ject": 1044,
      "ced": 1045,
      "Ġwho": 1046,
      "Ġ10": 1047,
      "à®²": 1048,
      "ood": 1049,
      "à¥Īà¥¤": 1050,
      "Ġintention": 1051,
      "Ġcla": 1052,
      "Ġomitted": 1053,
      "Ġinter": 1054,
      "ĠCon": 1055,
      "Ġdate": 1056,
      "Ġexp": 1057,
      "Ġ196": 1058,
      "à¨°à¨ķ": 1059,
      "Ġperiod": 1060,
      "à°¦": 1061,
      "Ġàª¹": 1062,
      "ding": 1063,
      "á±": 1064,
      "te": 1065,
      "àªª": 1066,
      "à¦§": 1067,
      "à§ģ": 1068,
      "Ġpar": 1069,
      "Ġàª¤": 1070,
      "ities": 1071,
      "dition": 1072,
      "Ġits": 1073,
      "à¨ķà¨Ł": 1074,
      "ceed": 1075,
      "entr": 1076,
      "Ġï¿½ï¿½": 1077,
      "à²µ": 1078,
      "Ġafter": 1079,
      "à²¯": 1080,
      "ere": 1081,
      "ollow": 1082,
      "Ġob": 1083,
      "Ġà¤§": 1084,
      "à®¯": 1085,
      "Ġup": 1086,
      "Ġà¥¤": 1087,
      "Ġtak": 1088,
      "Ġintentionally": 1089,
      "Ġone": 1090,
      "==>": 1091,
      "Ġ<==": 1092,
      "Ġà¦¬": 1093,
      "Ġà¦ª": 1094,
      "Ġout": 1095,
      "à©ĥ": 1096,
      "Ġres": 1097,
      "oard": 1098,
      "--------": 1099,
      "Ġfollow": 1100,
      "Ġwithin": 1101,
      "cc": 1102,
      "ater": 1103,
      "Ġass": 1104,
      "iz": 1105,
      "13": 1106,
      "ified": 1107,
      "Ġthan": 1108,
      "14": 1109,
      "ER": 1110,
      "Ġwork": 1111,
      "àµĭ": 1112,
      "Ġàª®": 1113,
      "Ġli": 1114,
      "à¦Ĥ": 1115,
      "àª¸": 1116,
      "Ġshould": 1117,
      "Ġbefore": 1118,
      "ome": 1119,
      "à´£": 1120,
      "Ġprovisions": 1121,
      "su": 1122,
      "15": 1123,
      "17": 1124,
      "à¨²à¨¤": 1125,
      "ical": 1126,
      "à©Ģ.": 1127,
      "ÃĢÃ": 1128,
      "à¨Ĺà¨Ĩ": 1129,
      "ĠCommission": 1130,
      "ublic": 1131,
      "àµ½": 1132,
      "The": 1133,
      "Ġgr": 1134,
      "ĠïĢ": 1135,
      "Ġmem": 1136,
      "à°¤": 1137,
      "à´³": 1138,
      "Ġwill": 1139,
      "Ġà¦¹": 1140,
      "Ġtax": 1141,
      "Ġrel": 1142,
      "ates": 1143,
      "à©Ī,": 1144,
      "à¨¼à¨¾": 1145,
      "Ġemploy": 1146,
      "Ġk": 1147,
      "à´¸": 1148,
      "Ġpart": 1149,
      "ener": 1150,
      "istr": 1151,
      "Ġàª¨": 1152,
      "ĠEx": 1153,
      "à¦Ľ": 1154,
      "gistr": 1155,
      "Ġà¤ħà¤ª": 1156,
      "Ġà¤¥": 1157,
      "à°¯": 1158,
      "à°Ł": 1159,
      "à¤°à¤£": 1160,
      "ven": 1161,
      "ĠUn": 1162,
      "à®µ": 1163,
      "à¬ķ": 1164,
      "à´ļ": 1165,
      "min": 1166,
      "Ġland": 1167,
      "are": 1168,
      "à²Ĺ": 1169,
      "og": 1170,
      "à¤¿à¤¾": 1171,
      "ned": 1172,
      "à¤¤à¤ķ": 1173,
      "18": 1174,
      "Ġrequire": 1175,
      "Ġà¨ªà¨°": 1176,
      ").": 1177,
      "Ġà§": 1178,
      "Ġà¨¸à¨®": 1179,
      "ive": 1180,
      "àªŁ": 1181,
      "ule": 1182,
      "one": 1183,
      "tice": 1184,
      "ating": 1185,
      "Ġsaid": 1186,
      "Ġalso": 1187,
      "ner": 1188,
      "à©Ģ,": 1189,
      "Îº": 1190,
      "16": 1191,
      "à¤«": 1192,
      "stitution": 1193,
      "Ġhim": 1194,
      "ĠIndia": 1195,
      "à²ķ": 1196,
      "Ġimp": 1197,
      "Ġday": 1198,
      "à¨¨à¨°": 1199,
      "Ġà¤ļ": 1200,
      "à±ĩ": 1201,
      "Ġ197": 1202,
      "Ġinc": 1203,
      "rit": 1204,
      "à¨¸à¨²": 1205,
      "Ġinclud": 1206,
      "stitut": 1207,
      "crib": 1208,
      "à¥ĥ": 1209,
      "oint": 1210,
      "vel": 1211,
      "Ġel": 1212,
      "ex": 1213,
      "**": 1214,
      "à¤¨à¤¹": 1215,
      "Ġ/": 1216,
      "Ġà¨Ĺà¨Ī": 1217,
      "Ġwhere": 1218,
      "TI": 1219,
      "hed": 1220,
      "Â½": 1221,
      "Ġproper": 1222,
      "Ġmak": 1223,
      "000": 1224,
      "à¤²à¤¯": 1225,
      "ower": 1226,
      "ĠÄ": 1227,
      "Ġwere": 1228,
      "Ġà´ħ": 1229,
      "ĠBoard": 1230,
      "Ġ18": 1231,
      "sed": 1232,
      "Ġà¨ħà¨§": 1233,
      "àŃĭ": 1234,
      "................................": 1235,
      "ees": 1236,
      "ix": 1237,
      "à¬¨": 1238,
      "Ġamount": 1239,
      "à°¸": 1240,
      "ND": 1241,
      "Ġcomm": 1242,
      "ult": 1243,
      "à¥Ģ.": 1244,
      "Ġ&": 1245,
      "à¬¤": 1246,
      "ual": 1247,
      "Ġà¨Ł": 1248,
      "à¤¾,": 1249,
      "out": 1250,
      "à¨²à¨ķ": 1251,
      "ferred": 1252,
      "Ġàªľ": 1253,
      "à©Ľ": 1254,
      "ised": 1255,
      "à¤¿ï¿½": 1256,
      "Ġpl": 1257,
      "Ġà¨¸à¨ķà¨¦": 1258,
      "àµ¼": 1259,
      "à¦¶": 1260,
      "à³Ĩ": 1261,
      "Â·": 1262,
      "Ġà¨īà¨¹": 1263,
      "Ġà¤īà¤ª": 1264,
      "à¨®à¨²": 1265,
      "Ġcer": 1266,
      "entral": 1267,
      "à¤¸à¤®": 1268,
      "à¦ľ": 1269,
      "Ġtheir": 1270,
      "22": 1271,
      "Ġà¨ħà¨¦": 1272,
      "à¤¹à¤¤": 1273,
      "Ġrece": 1274,
      "ï¿½ï¿½ï¿½ï¿½ï¿½": 1275,
      "Ġà¨¹à¨¨": 1276,
      "Ġtrans": 1277,
      "à©ľ": 1278,
      "à¨°à¨¨": 1279,
      "Ġà´ķ": 1280,
      "ons": 1281,
      "Ġvk": 1282,
      "Ġà¤¸à¤®": 1283,
      "Ĳà¤¸": 1284,
      "tification": 1285,
      "Ġàªµ": 1286,
      "àª£": 1287,
      "mitt": 1288,
      "urn": 1289,
      "Ġauthority": 1290,
      "Ġcan": 1291,
      "Ġ14": 1292,
      "Ġter": 1293,
      "à®³": 1294,
      "stru": 1295,
      "à°ª": 1296,
      "ong": 1297,
      "àª¥": 1298,
      "ĠPro": 1299,
      "Ġcl": 1300,
      "ific": 1301,
      "Ġ12": 1302,
      "ĠIt": 1303,
      "ings": 1304,
      "ĠHigh": 1305,
      "ĠÃ": 1306,
      "ĠØ§": 1307,
      "Ġdo": 1308,
      "à¨°à¨ľ": 1309,
      "Ġrespect": 1310,
      "Ġà´¨": 1311,
      "Ġ15": 1312,
      "Ġhad": 1313,
      "pt": 1314,
      "ok": 1315,
      "à°µ": 1316,
      "à¦¾à¦¿": 1317,
      "Ġàªķàª°": 1318,
      "à¬¬": 1319,
      "à¤ħà¤§": 1320,
      "ĠSection": 1321,
      "à§į": 1322,
      "ON": 1323,
      "very": 1324,
      "air": 1325,
      "ew": 1326,
      "àµĩ": 1327,
      "cribed": 1328,
      "ÃīÃ": 1329,
      "Ġà¤ıà¤ķ": 1330,
      "Ġgiv": 1331,
      "Ġà´µ": 1332,
      "Ġà¤ķà¤°à¤¨": 1333,
      "Ġofficer": 1334,
      "ider": 1335,
      "cy": 1336,
      "à¤ł": 1337,
      "ected": 1338,
      "âĢĵ": 1339,
      "kf": 1340,
      "Ġchar": 1341,
      "Ġ198": 1342,
      "af": 1343,
      "ati": 1344,
      "uil": 1345,
      "Ġbeing": 1346,
      "ank": 1347,
      "ature": 1348,
      "ïģļ": 1349,
      "Ġfin": 1350,
      "Ġ13": 1351,
      "pose": 1352,
      "Ġes": 1353,
      "ors": 1354,
      "Ġrules": 1355,
      "Ġspecified": 1356,
      "Ġà¤¯à¤¹": 1357,
      "Ġà¦ķà¦°": 1358,
      "por": 1359,
      "à²¸": 1360,
      "à¤ĩà¤¸": 1361,
      "ksa": 1362,
      "àŃŁ": 1363,
      "ĠDep": 1364,
      "ĠApp": 1365,
      "Ġdated": 1366,
      "Ġmeans": 1367,
      "Ġagain": 1368,
      "à¤ıà¤ķ": 1369,
      "à©ĩà¨Ĥ": 1370,
      "ens": 1371,
      "Ġfollowing": 1372,
      "Ġã": 1373,
      "umber": 1374,
      "Ġtw": 1375,
      "à¨¿à¨¾": 1376,
      "Ġbut": 1377,
      "ĠAs": 1378,
      "Ġmon": 1379,
      "Ġinv": 1380,
      "Ġlaw": 1381,
      "Ġappeal": 1382,
      "eneral": 1383,
      "Ġpla": 1384,
      "ĠOfficer": 1385,
      "Ġà´ª": 1386,
      "Ġsupp": 1387,
      "Ġapplication": 1388,
      "ĠAd": 1389,
      "ght": 1390,
      "Ġinto": 1391,
      "iii": 1392,
      "mittee": 1393,
      "ï¿½ï¿½ï¿½ï¿½ï¿½ï¿½ï¿½ï¿½ï¿½ï¿½ï¿½ï¿½ï¿½ï¿½ï¿½ï¿½": 1394,
      "Ġappell": 1395,
      "à¥Ī,": 1396,
      "Ġï¿½à¤¾": 1397,
      "me": 1398,
      "gr": 1399,
      "ible": 1400,
      "Ġiz": 1401,
      "Ġà¨Ĳà¨ķà¨Ł": 1402,
      "Ġri": 1403,
      "Ġà¦¤": 1404,
      "ast": 1405,
      "à¦£": 1406,
      "à¤²à¤ı": 1407,
      "ove": 1408,
      "ĠTh": 1409,
      "àªľ": 1410,
      "ME": 1411,
      "Ġwould": 1412,
      "à¨ĩà¨Ĩ": 1413,
      "Ġsame": 1414,
      "IN": 1415,
      "gister": 1416,
      "uring": 1417,
      "Ġservice": 1418,
      "Ġà¤¨à¤¹": 1419,
      "cer": 1420,
      "ĠAuthority": 1421,
      "ĠÏ": 1422,
      "23": 1423,
      "25": 1424,
      "Ġà¦¨": 1425,
      "ility": 1426,
      "àª§": 1427,
      "ĠOF": 1428,
      "Ġname": 1429,
      "ĠPr": 1430,
      "à¨¬à¨°": 1431,
      "à¤ľà¤¨": 1432,
      "à¥Į": 1433,
      "Ġpublic": 1434,
      "Ġev": 1435,
      "àŃĩ": 1436,
      "In": 1437,
      "Ġagainst": 1438,
      "ession": 1439,
      "Ġàªħàª¨": 1440,
      "Ġdh": 1441,
      "24": 1442,
      "à¨Ŀ": 1443,
      "à¤®à¤²": 1444,
      "ĠAn": 1445,
      "li": 1446,
      "Ġform": 1447,
      "its": 1448,
      "oss": 1449,
      "ords": 1450,
      "Ġà¦®": 1451,
      "cial": 1452,
      "Ġval": 1453,
      "ivers": 1454,
      "à²Ĥ": 1455,
      "Ġprescribed": 1456,
      "à§°": 1457,
      "artment": 1458,
      "ĠCentral": 1459,
      "ecess": 1460,
      "ents": 1461,
      "à©Īà¨Ĥ": 1462,
      "ale": 1463,
      "Ġyears": 1464,
      "ices": 1465,
      "à¤Ľ": 1466,
      "Ġpurpose": 1467,
      "tition": 1468,
      "Ġconsider": 1469,
      "Ġonly": 1470,
      "à¤ķà¤¸": 1471,
      "à¥Īà¤Ĥ": 1472,
      "Ġthese": 1473,
      "ants": 1474,
      "à¨¦à¨°": 1475,
      "unic": 1476,
      "Îľ": 1477,
      "à¨Ĳ": 1478,
      "Ġissu": 1479,
      "ÃĢÃĦ": 1480,
      "à¤ªà¤¨": 1481,
      "àµģà´Ĥ": 1482,
      "à¨¾à¨¿": 1483,
      "any": 1484,
      "à¤Ĺà¤¯": 1485,
      "ished": 1486,
      "Ġ16": 1487,
      "ative": 1488,
      "à±ĭ": 1489,
      "vi": 1490,
      "Ġ194": 1491,
      "RE": 1492,
      "Ġsec": 1493,
      "Ġgood": 1494,
      "bers": 1495,
      "âĢĶâĢĶ": 1496,
      "Ġaccount": 1497,
      "à¨ªà¨£": 1498,
      "Ġreas": 1499,
      "Ġeff": 1500,
      "Ġdef": 1501,
      "rovided": 1502,
      "à¤ķà¤°à¤¨": 1503,
      "à¦Ń": 1504,
      "br": 1505,
      "Ġaccord": 1506,
      "Ġregul": 1507,
      "AN": 1508,
      "uk": 1509,
      "mend": 1510,
      "à¤ļà¤¨": 1511,
      "à¤ķà¤¤": 1512,
      "à¨¾à¥¤": 1513,
      "tend": 1514,
      "ges": 1515,
      "Ġrem": 1516,
      "Ġnecess": 1517,
      "abl": 1518,
      "Ġcondition": 1519,
      "Ġop": 1520,
      "Ġdk": 1521,
      "Ġmat": 1522,
      "Ġà¤ĸ": 1523,
      "àŃģ": 1524,
      "uilding": 1525,
      "TE": 1526,
      "ĠàªĽ": 1527,
      "àªĹ": 1528,
      ":-": 1529,
      "à¨¼à©Ģ": 1530,
      "Ġcar": 1531,
      "Ġà¨ħà¨¸": 1532,
      "à´¦": 1533,
      "à¨°à¨µ": 1534,
      "à¤µà¤°": 1535,
      "à´Ļ": 1536,
      "Ġà¦ī": 1537,
      "Âª": 1538,
      ".,": 1539,
      "50": 1540,
      "the": 1541,
      "Ġà¤Ĳà¤¸": 1542,
      "Ġà«": 1543,
      "Ġprovided": 1544,
      "Ġfu": 1545,
      "Ġbas": 1546,
      "ward": 1547,
      "Ġà¨¸à¨µ": 1548,
      "àµĢ": 1549,
      "Ġà¨ħà¨¨": 1550,
      "Ġ30": 1551,
      "Ġdirect": 1552,
      "Ġproceed": 1553,
      "Ġfact": 1554,
      "Ġmonth": 1555,
      "Ġoff": 1556,
      "Ġà´¸": 1557,
      "à¦¹": 1558,
      "à¤ıà¤Ĺ": 1559,
      "ĠDe": 1560,
      "Ġcas": 1561,
      "sel": 1562,
      "Îľà¦Ł": 1563,
      "ĠAr": 1564,
      "ances": 1565,
      "ĠÂ·": 1566,
      "Ġà¤Ĺà¤¯": 1567,
      "à°ļ": 1568,
      "Ġà¨¯": 1569,
      "à¤ħà¤¨": 1570,
      "amin": 1571,
      "Ġà°ħ": 1572,
      "âĢ¦âĢ¦âĢ¦âĢ¦âĢ¦âĢ¦âĢ¦âĢ¦": 1573,
      "ress": 1574,
      "________________": 1575,
      "iversity": 1576,
      "Ġind": 1577,
      "Ġà¨ı": 1578,
      "à¤ĩ": 1579,
      "à°¡": 1580,
      "Ġnotice": 1581,
      "Ġro": 1582,
      "Ġà°ª": 1583,
      "30": 1584,
      "à¤ķà¤¯": 1585,
      "Ġ,": 1586,
      "Ġà¨¡": 1587,
      "Ġcontr": 1588,
      "Ġà¨¸à¨¬": 1589,
      "àª¹": 1590,
      "21": 1591,
      "Ġclause": 1592,
      "tif": 1593,
      "ular": 1594,
      "ov": 1595,
      "here": 1596,
      "Ġà¨Ĺà¨ı": 1597,
      "har": 1598,
      "stituted": 1599,
      "ational": 1600,
      "led": 1601,
      "Ġallow": 1602,
      "Ġrule": 1603,
      "à°®": 1604,
      "Ġtwo": 1605,
      "Ġpost": 1606,
      "ry": 1607,
      "à¨Łà¨°": 1608,
      "ector": 1609,
      "ÛĮ": 1610,
      "à©ģà©°": 1611,
      "ĠSche": 1612,
      "à¥Ģ,": 1613,
      "ke": 1614,
      "Ġ17": 1615,
      "aj": 1616,
      "Ġpass": 1617,
      "Ġà®µ": 1618,
      "Ġmin": 1619,
      "ï¿½à¤¾": 1620,
      "iew": 1621,
      "RA": 1622,
      "à¬®": 1623,
      "Ġà®®": 1624,
      "ĠàªĨàªµ": 1625,
      "velop": 1626,
      "Ġgro": 1627,
      "ĠSec": 1628,
      "à¨ªà¨¤": 1629,
      "à¤¯à¤¹": 1630,
      "Ġmain": 1631,
      "Ġsubject": 1632,
      "ĠOr": 1633,
      "à¦ĵ": 1634,
      "ĠâĢĵ": 1635,
      "Ġpersons": 1636,
      "HE": 1637,
      "ety": 1638,
      "Ġfir": 1639,
      "uty": 1640,
      "ound": 1641,
      "own": 1642,
      "Ġ199": 1643,
      "Ġà¨¤à¨°": 1644,
      "Ġïģļ": 1645,
      "Ġnecessary": 1646,
      "à¤°à¤¸": 1647,
      "Ġauthor": 1648,
      "à«Ĥ": 1649,
      "à¨¸à¨¤": 1650,
      "etition": 1651,
      "Ġse": 1652,
      "Ġfd": 1653,
      "à¦ĸ": 1654,
      "Ġow": 1655,
      "à¤ªà¤¤": 1656,
      "Ġrequired": 1657,
      "cil": 1658,
      "ï¿½ï¿½ï¿½ï¿½ï¿½ï¿½": 1659,
      "Ġhol": 1660,
      "Provided": 1661,
      "ile": 1662,
      "Ġà¦ıà¦¬": 1663,
      "àª¶": 1664,
      "Ġdes": 1665,
      "Ġ200": 1666,
      "Ġgiven": 1667,
      "Ġà®ħ": 1668,
      "rou": 1669,
      "Ġwhen": 1670,
      "duct": 1671,
      "ĠEn": 1672,
      "à¦ļ": 1673,
      "ïĢ": 1674,
      "man": 1675,
      "AL": 1676,
      "à¨ľà¨¸": 1677,
      "Ġ11": 1678,
      "Ġlic": 1679,
      "az": 1680,
      "Ġeach": 1681,
      "Ġà¨ķà¨°à¨¦": 1682,
      "ption": 1683,
      "à¦¥": 1684,
      "ĠCoun": 1685,
      "Ġàª¦": 1686,
      "à¤¼": 1687,
      "kh": 1688,
      "Ġàª°": 1689,
      "ocu": 1690,
      "ĠÏķ": 1691,
      "Â°": 1692,
      "à¤ķà¤°à¤£": 1693,
      "Ġcontain": 1694,
      "cip": 1695,
      "ang": 1696,
      "ĠCommittee": 1697,
      "ctions": 1698,
      "Ġarea": 1699,
      "Ġthey": 1700,
      "Ġàª¹àª¤": 1701,
      "ĠRs": 1702,
      ".-": 1703,
      "Ġregister": 1704,
      "Ø§": 1705,
      "ight": 1706,
      "Ġproperty": 1707,
      "ĠCommissioner": 1708,
      "formation": 1709,
      "à¨īà¨£": 1710,
      "ST": 1711,
      "cess": 1712,
      "put": 1713,
      "Ġà¨¸à¨¨": 1714,
      "Ġà®ķ": 1715,
      "Ġreg": 1716,
      "ten": 1717,
      "à¨ł": 1718,
      "ĠII": 1719,
      "ĠIf": 1720,
      "ret": 1721,
      "Ġesa": 1722,
      "Ãģ": 1723,
      "ĠÄº": 1724,
      "Ġtaken": 1725,
      "Ġmore": 1726,
      "Ġdet": 1727,
      "ĠRules": 1728,
      "Ġest": 1729,
      "ĠRE": 1730,
      "Ġmake": 1731,
      "à¨°à¨¸": 1732,
      "à«ģàªĤ": 1733,
      "Ġdj": 1734,
      "Ġconcer": 1735,
      "ms": 1736,
      "orpor": 1737,
      "ĠServ": 1738,
      "iction": 1739,
      "Ġwrit": 1740,
      "26": 1741,
      "à¤µà¤§": 1742,
      "Ġnumber": 1743,
      "ited": 1744,
      "Ġà¨Ĩà¨ªà¨£": 1745,
      "Ġà¦ľ": 1746,
      "Ġgoods": 1747,
      "ark": 1748,
      "ief": 1749,
      "à¤§à¤ķ": 1750,
      "à¯ĩ": 1751,
      "ĠMa": 1752,
      "Ġà®ª": 1753,
      "ĠSub": 1754,
      "ian": 1755,
      "Ġbuilding": 1756,
      "Ġ~": 1757,
      "ren": 1758,
      "ra": 1759,
      "Ġappellant": 1760,
      "to": 1761,
      "Ġwe": 1762,
      "TION": 1763,
      "Ġà¦¯": 1764,
      "urther": 1765,
      "Ġà°ķ": 1766,
      "Ġissued": 1767,
      "Ġent": 1768,
      "Ġà¤īà¤¸": 1769,
      "Ġwithout": 1770,
      "à¤ĺ": 1771,
      "à¨ħà¨¦": 1772,
      "à¤¨à¤¯à¤®": 1773,
      "Ġ25": 1774,
      "Ġinterest": 1775,
      "ective": 1776,
      "oth": 1777,
      "Ġbel": 1778,
      "à¨§à¨ķ": 1779,
      "Ġmanner": 1780,
      "ĠUniversity": 1781,
      "ode": 1782,
      "à¦Ĺ": 1783,
      "ĠJud": 1784,
      "alf": 1785,
      "Ġset": 1786,
      "Ġabove": 1787,
      "à±Ģ": 1788,
      "estion": 1789,
      "Ġdocu": 1790,
      "à²³": 1791,
      "UR": 1792,
      "irc": 1793,
      "àª¬": 1794,
      "cise": 1795,
      "Ġoper": 1796,
      "Ġact": 1797,
      "à¤ĵ": 1798,
      "à±Ĩ": 1799,
      "Ġà°¸": 1800,
      "ange": 1801,
      "à¨®à¨¤": 1802,
      "cept": 1803,
      "Ġà²ħ": 1804,
      "Ġmembers": 1805,
      "ĠSu": 1806,
      "Ġequ": 1807,
      "à¤®à¤¤": 1808,
      "Ġthem": 1809,
      "Ġplace": 1810,
      "ĠCO": 1811,
      "tificate": 1812,
      "à¨²à¨ķà¨°à¨¤": 1813,
      "ÙĪ": 1814,
      "Ġà¥": 1815,
      "Ġà¤ĩ": 1816,
      "ily": 1817,
      "ath": 1818,
      "ef": 1819,
      "Ø±": 1820,
      "Â¼": 1821,
      "velopment": 1822,
      "Ġposs": 1823,
      "anch": 1824,
      "Ġwhether": 1825,
      "à¤Ĺà¤¤": 1826,
      "Ġduring": 1827,
      "ari": 1828,
      "Ġaff": 1829,
      "§à§": 1830,
      "à²®": 1831,
      "ech": 1832,
      "owers": 1833,
      "Ġreferred": 1834,
      "Ġreport": 1835,
      "'s": 1836,
      "à¤°à¤¦": 1837,
      "ointed": 1838,
      "Ġquestion": 1839,
      "Ġpayment": 1840,
      "ails": 1841,
      "Ġà®¤": 1842,
      "rol": 1843,
      "Ġconditions": 1844,
      "Sj": 1845,
      "tc": 1846,
      "Ġdays": 1847,
      "ever": 1848,
      "Ġà¤ħà¤¸": 1849,
      "à¨ħà¨¤": 1850,
      "à¨¨à¨¹": 1851,
      "idence": 1852,
      "Ġà¤¿à¤¾": 1853,
      "aving": 1854,
      "Ġâ": 1855,
      "tiv": 1856,
      "ident": 1857,
      "à¨ķà¨®": 1858,
      "Ġstate": 1859,
      "Ġheld": 1860,
      "Ġpower": 1861,
      "ember": 1862,
      "ause": 1863,
      "Ġdeem": 1864,
      "Ġdks": 1865,
      "Ġcourt": 1866,
      "à°Ĺ": 1867,
      "====": 1868,
      "à¨¯à¨®": 1869,
      "ĠCouncil": 1870,
      "Ġused": 1871,
      "Ġà¤Ł": 1872,
      "Ġà¨īà¨ª": 1873,
      "ys": 1874,
      "Ġregard": 1875,
      "Ġjud": 1876,
      "IC": 1877,
      "cedure": 1878,
      "TS": 1879,
      "à¤°à¤®": 1880,
      "Ġappoint": 1881,
      "à¤¿à¥ĩ": 1882,
      "ĠTax": 1883,
      "27": 1884,
      "ders": 1885,
      "Ġeffect": 1886,
      "yst": 1887,
      "Ġconcerned": 1888,
      "à¨¾,": 1889,
      "ĠX": 1890,
      "Ġrev": 1891,
      "ïģ§": 1892,
      "inal": 1893,
      "Ġà¬ķ": 1894,
      "Ġclaim": 1895,
      "à°¿à°Ĥ": 1896,
      "edi": 1897,
      "hi": 1898,
      "ipal": 1899,
      "Ġà²®": 1900,
      "kd": 1901,
      "à¨°à¨®": 1902,
      "Ġ24": 1903,
      "Ġpen": 1904,
      "ack": 1905,
      "Ġnotification": 1906,
      "Ġrecord": 1907,
      "Ġwords": 1908,
      "Ġfurther": 1909,
      "iness": 1910,
      "196": 1911,
      "ison": 1912,
      "Ġfil": 1913,
      "Ġpaid": 1914,
      "rop": 1915,
      "àªļ": 1916,
      "olice": 1917,
      "ĠâĢĶ": 1918,
      "No": 1919,
      "ĠSU": 1920,
      "à¨ĺ": 1921,
      "Ġpetition": 1922,
      "Ġetc": 1923,
      "Ġï¿½ï¿½ï¿½": 1924,
      "unicipal": 1925,
      "à´§": 1926,
      "Ġls": 1927,
      "Ġav": 1928,
      "Ġover": 1929,
      "Ġentit": 1930,
      "Ġret": 1931,
      "Ġdecision": 1932,
      "Ġreason": 1933,
      "Ġevery": 1934,
      "ended": 1935,
      "28": 1936,
      "à¬¹": 1937,
      "Ġuse": 1938,
      "Ġrespond": 1939,
      "Ġapprov": 1940,
      "ĠLe": 1941,
      "poses": 1942,
      "198": 1943,
      "33": 1944,
      "à¤¯à¤°": 1945,
      "ĠRegul": 1946,
      "gal": 1947,
      "kr": 1948,
      ".)": 1949,
      "àª·": 1950,
      "à¥ī": 1951,
      "à¨¬à¨¦": 1952,
      "Ġbeh": 1953,
      "ting": 1954,
      "Ġloc": 1955,
      "rough": 1956,
      "Ġvf": 1957,
      "Ġà°µ": 1958,
      "Ġà°®": 1959,
      "Ú©": 1960,
      "Ġmember": 1961,
      "Ġexer": 1962,
      "ĠDepartment": 1963,
      "Ġà®ļ": 1964,
      "Ġàªı": 1965,
      "ural": 1966,
      "ency": 1967,
      "hen": 1968,
      "à¬¦": 1969,
      "Ġpri": 1970,
      "à¤¦à¤¨": 1971,
      "gistration": 1972,
      "29": 1973,
      "à¤¿à¥Ģ": 1974,
      "Ġincluding": 1975,
      "dule": 1976,
      "----------------": 1977,
      "Ġfirst": 1978,
      "199": 1979,
      "Ġinformation": 1980,
      "à¨Ĭ": 1981,
      "Ġmeet": 1982,
      "ystem": 1983,
      "Ġà¦°": 1984,
      "à´·": 1985,
      "als": 1986,
      "Ġright": 1987,
      "tw": 1988,
      "ite": 1989,
      "à¨Ľ": 1990,
      "Ġcases": 1991,
      "Ġ23": 1992,
      "usiness": 1993,
      "Ġestabl": 1994,
      "à¨¹à¨¤": 1995,
      "ï¿½âĢį": 1996,
      "HA": 1997,
      "een": 1998,
      "200": 1999,
      "Ġrele": 2000,
      "tained": 2001,
      "Ġà¨°à¨µ": 2002,
      "Ġins": 2003,
      "Ġocc": 2004,
      "ĠDirect": 2005,
      "àµ¾": 2006,
      "ticular": 2007,
      "Ġ31": 2008,
      "with": 2009,
      "Ġà¨¸à¨°à¨ķ": 2010,
      "âĢĵâĢĵ": 2011,
      "pr": 2012,
      "kjk": 2013,
      "ged": 2014,
      "Ġthrough": 2015,
      "Ġthereof": 2016,
      "Ġà©°": 2017,
      "Ġdif": 2018,
      "à¤°à¤¹": 2019,
      "Ġ:": 2020,
      "Ġdeter": 2021,
      "istrict": 2022,
      "40": 2023,
      "see": 2024,
      "Ġà¤¡": 2025,
      "ï¿½,": 2026,
      "less": 2027,
      "ĠFor": 2028,
      "197": 2029,
      "Ġdr": 2030,
      "ĠMan": 2031,
      "ĠOn": 2032,
      "à¤¨à¤®": 2033,
      ".]": 2034,
      "ĠïĥĨ": 2035,
      "ference": 2036,
      "ĠÂ¼": 2037,
      "rial": 2038,
      "Ġexamin": 2039,
      "ïĥ": 2040,
      "ability": 2041,
      "à¨¨à¨ķ": 2042,
      "Fkk": 2043,
      "Ġupon": 2044,
      "ĠComp": 2045,
      "posed": 2046,
      "ĠvkSj": 2047,
      "ĠÎŃà¦¯": 2048,
      "ĠTrib": 2049,
      "uf": 2050,
      "anding": 2051,
      "ĠThis": 2052,
      "Ġsche": 2053,
      "Ġcor": 2054,
      "ĠTr": 2055,
      "Ġforce": 2056,
      "iry": 2057,
      "ĠâĢ¢": 2058,
      "à¥ĩ,": 2059,
      "à¥ĩâĢį": 2060,
      "Ġsuit": 2061,
      "ï¿½ï¿½ï¿½ï¿½ï¿½ï¿½ï¿½": 2062,
      "àª³": 2063,
      "ters": 2064,
      "IS": 2065,
      "ived": 2066,
      "ness": 2067,
      "Ġà¨¿à¨¾": 2068,
      "Ġpurposes": 2069,
      "tial": 2070,
      "à©ĩ,": 2071,
      "ectr": 2072,
      "Ġfo": 2073,
      "à¨°à¨¦": 2074,
      "ES": 2075,
      "Ġappointed": 2076,
      "Ġoffice": 2077,
      "sue": 2078,
      "Ġne": 2079,
      "Ġbehalf": 2080,
      "ital": 2081,
      "Ġpowers": 2082,
      "à²¡": 2083,
      "agement": 2084,
      "Ġ26": 2085,
      "Ġdue": 2086,
      "à¨¼à©ĩ": 2087,
      "ĠMin": 2088,
      "fr": 2089,
      "Ġà¨īà¨¦": 2090,
      "Ġ28": 2091,
      ".âĢĶ": 2092,
      "Ġà¨µà¨ľ": 2093,
      "à¤²à¤ķ": 2094,
      "ext": 2095,
      "ĠRes": 2096,
      "andid": 2097,
      "55": 2098,
      "à¯Ĩ": 2099,
      "Ġà¨¬à¨£": 2100,
      "ĠgS": 2101,
      "Ġhaving": 2102,
      "Ġcap": 2103,
      "imum": 2104,
      "àª¡": 2105,
      "Ġassess": 2106,
      "lement": 2107,
      "incip": 2108,
      "by": 2109,
      "ification": 2110,
      "esh": 2111,
      "azet": 2112,
      "ĠSUP": 2113,
      "til": 2114,
      "Ġaccordance": 2115,
      "not": 2116,
      "ator": 2117,
      "Ġbec": 2118,
      "ky": 2119,
      "Ġà¤ķà¤ķ": 2120,
      "à¥Ģà¥¤": 2121,
      "Ġcop": 2122,
      "àªĪ": 2123,
      "ivil": 2124,
      "à¬¸": 2125,
      "ïĤ": 2126,
      "Ġmust": 2127,
      "Ġàªķàª°àªµ": 2128,
      "à¨¸à¨Ł": 2129,
      "Ġà¤«": 2130,
      "Ġà¨ĺ": 2131,
      "atis": 2132,
      "Ġhere": 2133,
      "à¨µà¨°": 2134,
      "Ġlim": 2135,
      "Ġá": 2136,
      "Ġcontract": 2137,
      "ures": 2138,
      "Ġ]": 2139,
      "à®ļ": 2140,
      "Ġàª¬": 2141,
      "wise": 2142,
      "Ãĸ": 2143,
      "ku": 2144,
      "Ġten": 2145,
      "Ġnamely": 2146,
      "Ġsc": 2147,
      "ither": 2148,
      "Ġà®İ": 2149,
      "Ġexceed": 2150,
      "Ġà¤ıà¤¸": 2151,
      "Ġà²¸": 2152,
      "46": 2153,
      "Ġavail": 2154,
      "tified": 2155,
      "à¬¯": 2156,
      "Ġfun": 2157,
      "Ġthree": 2158,
      "à²ª": 2159,
      "ĠAll": 2160,
      "à¨¸à¨°": 2161,
      "ÃīÃī": 2162,
      "à¤¿à¤Ĥ": 2163,
      "ticle": 2164,
      "Ġdep": 2165,
      "Ġref": 2166,
      "venue": 2167,
      "Ġ21": 2168,
      "à¦Ľà¦²": 2169,
      "§à«": 2170,
      "à¯Ģ": 2171,
      "Ġadv": 2172,
      "Ġ27": 2173,
      "Ġà¤¸à¤°à¤ķ": 2174,
      "udit": 2175,
      "Ġapply": 2176,
      "ĠAcc": 2177,
      "Ġcompany": 2178,
      "39": 2179,
      "aterial": 2180,
      "à¨¸à¨¨": 2181,
      "Ġà°¨": 2182,
      "hip": 2183,
      "Ġà¨¬à¨¨": 2184,
      "ient": 2185,
      "à¤¯à¤¤": 2186,
      "Ġdeemed": 2187,
      "ody": 2188,
      "gment": 2189,
      "Re": 2190,
      "à°¬": 2191,
      "Ġcle": 2192,
      "Ġ29": 2193,
      "Ġbusiness": 2194,
      "ministr": 2195,
      "Ġprodu": 2196,
      "ĠHe": 2197,
      "Ġatt": 2198,
      "Ġà´®": 2199,
      "35": 2200,
      "Ex": 2201,
      "Ġà°ļ": 2202,
      "unal": 2203,
      "à¨Ĺà¨¤": 2204,
      "à¤¶à¤ķ": 2205,
      "à®¨": 2206,
      "Ġground": 2207,
      "Ġregistered": 2208,
      "Ġus": 2209,
      "à´¶": 2210,
      "Ġtk": 2211,
      "Ġparticular": 2212,
      "Ġà¬ı": 2213,
      "Ch": 2214,
      "34": 2215,
      "Ġà®¨": 2216,
      "Ġà¦ıà¦ķ": 2217,
      "Ġà¨ľà¨¦": 2218,
      "POR": 2219,
      "Ġadd": 2220,
      "...": 2221,
      "Ġless": 2222,
      "à¨µà¨§": 2223,
      "Ġco": 2224,
      "Ġcertificate": 2225,
      "Ûģ": 2226,
      "Ġconstru": 2227,
      "ased": 2228,
      "ĠïĤĬ": 2229,
      "ĠSh": 2230,
      "àµ»": 2231,
      "tim": 2232,
      "Ġmatter": 2233,
      "ancial": 2234,
      "ĠDistrict": 2235,
      "à¤¾âĢį": 2236,
      "tra": 2237,
      "ĠDirector": 2238,
      "hic": 2239,
      "Ġdoes": 2240,
      "à¦¨à¦°": 2241,
      "retary": 2242,
      "Ġà¨µà¨ķ": 2243,
      "ĠAss": 2244,
      "Ġbasis": 2245,
      "ĠâĢĺ": 2246,
      "à¥ĩ.": 2247,
      "Ġpresent": 2248,
      "azette": 2249,
      "à¸": 2250,
      "à¤°à¤°": 2251,
      "Ġprom": 2252,
      "60": 2253,
      "Ġview": 2254,
      "orporation": 2255,
      "ning": 2256,
      "used": 2257,
      "ĠPar": 2258,
      "EC": 2259,
      "à¤ģ": 2260,
      "Ġcirc": 2261,
      "Ġprocess": 2262,
      "Ġsign": 2263,
      "bZ": 2264,
      "resent": 2265,
      "Ġà¤Ĩà¤¦": 2266,
      "âĢ¢": 2267,
      "Ġexec": 2268,
      "Ġbetw": 2269,
      "Ġevidence": 2270,
      "à¨ªà¨°": 2271,
      "à¨¦à¨®": 2272,
      "NT": 2273,
      "edical": 2274,
      "Ġà¤µà¤¹": 2275,
      "lh": 2276,
      "Ġà´¤": 2277,
      "arge": 2278,
      "Ġsale": 2279,
      "way": 2280,
      "Ġcandid": 2281,
      "Ġbetween": 2282,
      "St": 2283,
      "other": 2284,
      "inary": 2285,
      "à¤°à¤µ": 2286,
      "à¤²à¤¨": 2287,
      "ized": 2288,
      "à¨ħà¨ķà¨¤": 2289,
      "à¤¬à¤¨": 2290,
      "Ġà§§à§": 2291,
      "Ġcomple": 2292,
      "Ġfl": 2293,
      "Ġnon": 2294,
      "à¸Ģ": 2295,
      "Ġgks": 2296,
      "à®ªà®Ł": 2297,
      "ĠCode": 2298,
      "Ġdeal": 2299,
      "Ġoffence": 2300,
      "Ġtake": 2301,
      "à¦·": 2302,
      "Ġclass": 2303,
      "48": 2304,
      "edu": 2305,
      "37": 2306,
      "Ġà´İ": 2307,
      "Ġcoun": 2308,
      "Ġà¤īà¤¸à¤ķ": 2309,
      "à¤¸à¤°": 2310,
      "ĠIndian": 2311,
      "anted": 2312,
      "ÙĨ": 2313,
      "Ġà¤¾": 2314,
      "à¤¯à¤µ": 2315,
      "îĢ": 2316,
      "ages": 2317,
      "ÆŁ": 2318,
      "à¨¨à¨¤": 2319,
      "ouse": 2320,
      "Ġspecial": 2321,
      "Ġà¬¸": 2322,
      "Ġà¦ħà¦¨": 2323,
      "à¤¸à¤ķà¤¤": 2324,
      "Ġcall": 2325,
      "Ġà¤Ĩà¤µ": 2326,
      "anchay": 2327,
      "Ġà¦ıà¦ĩ": 2328,
      "à©ħ": 2329,
      "à³ĩ": 2330,
      "Ġà¨¾": 2331,
      "ĠGeneral": 2332,
      "ior": 2333,
      "Ġotherwise": 2334,
      "ash": 2335,
      "Ġà¨Ĳà¨¸": 2336,
      "Ġwater": 2337,
      "Ġcost": 2338,
      "Ġissue": 2339,
      "Ġà¬¨": 2340,
      "Ġmaterial": 2341,
      "ric": 2342,
      "Ġaction": 2343,
      "URT": 2344,
      "Ġà¨ªà¨Ł": 2345,
      "Ġmonths": 2346,
      "mendment": 2347,
      "Ġpayable": 2348,
      "Ġservices": 2349,
      "echn": 2350,
      "redit": 2351,
      "Ġenter": 2352,
      "Ġà¨¸à¨ª": 2353,
      "rap": 2354,
      "Ġthose": 2355,
      "59": 2356,
      "Ġà¦¦": 2357,
      "Ġfac": 2358,
      "vant": 2359,
      "Ġà®ĩ": 2360,
      "ately": 2361,
      "à¨°à¨¡": 2362,
      "ĠWhere": 2363,
      "à¤Ŀ": 2364,
      "ind": 2365,
      "ĠGazette": 2366,
      "Ġcould": 2367,
      "Ġnew": 2368,
      "ĠZ": 2369,
      "olog": 2370,
      "à¨¦à¨¨": 2371,
      "iden": 2372,
      "à°·": 2373,
      "Ġcontin": 2374,
      "à¤¹à¤²": 2375,
      "Ġmention": 2376,
      "Ġleave": 2377,
      "upees": 2378,
      "||": 2379,
      "Ġà¥į": 2380,
      "àµĤ": 2381,
      "à®£": 2382,
      "Ġdist": 2383,
      "Ġtre": 2384,
      "Ġ22": 2385,
      "ishment": 2386,
      "for": 2387,
      "à®ķà®³": 2388,
      "Ġreceip": 2389,
      "38": 2390,
      "con": 2391,
      "Ġqual": 2392,
      "kZ": 2393,
      "Ġunless": 2394,
      "ĠPl": 2395,
      "Åª": 2396,
      "tal": 2397,
      "REME": 2398,
      "Ġproceedings": 2399,
      "ai": 2400,
      "36": 2401,
      "Ġeither": 2402,
      "ubl": 2403,
      "Ġcompl": 2404,
      "omin": 2405,
      "à¤ªà¤¸": 2406,
      "Ġren": 2407,
      "Ġà¤ķà¤°à¤¤": 2408,
      "Ġà¤Ĩà¤°": 2409,
      "ĠAND": 2410,
      "ĠÎŃà¦ķ": 2411,
      "ild": 2412,
      "ÛĴ": 2413,
      "Ġvalue": 2414,
      "ĠSp": 2415,
      "à¨¼à¨¿": 2416,
      "atisf": 2417,
      "ĠChief": 2418,
      "ĠCOURT": 2419,
      "à¤µà¤²": 2420,
      "à¬²": 2421,
      "anchayat": 2422,
      "isting": 2423,
      "amp": 2424,
      "-----": 2425,
      "Â©": 2426,
      "à¨§à¨¤": 2427,
      "Ġimm": 2428,
      "49": 2429,
      "ote": 2430,
      "ĠConstitution": 2431,
      "Ġgrant": 2432,
      "Ġcharge": 2433,
      "Ġboth": 2434,
      "à§Ĥ": 2435,
      "47": 2436,
      "ĠREPOR": 2437,
      "Ġà¨Ĩà¨¦": 2438,
      "à¥¦": 2439,
      "adesh": 2440,
      "Ġà¤¤à¤ķ": 2441,
      "Ġentitled": 2442,
      "Ġrespondent": 2443,
      "ĠSchedule": 2444,
      "à¤Łà¤°": 2445,
      "ogn": 2446,
      "ĠEng": 2447,
      "à¨¹à¨²": 2448,
      "àŃĢ": 2449,
      ")(": 2450,
      "Ġà¨¹à¨µ": 2451,
      "¯à§": 2452,
      "Ġà¨Ľ": 2453,
      "Ġben": 2454,
      "à©Ħ": 2455,
      "Ġgu": 2456,
      "ĠTribunal": 2457,
      "ĠBank": 2458,
      "Ġsystem": 2459,
      "Ġfurn": 2460,
      "Ġtransfer": 2461,
      "Ġmet": 2462,
      "uris": 2463,
      "Ġà²ª": 2464,
      "ciety": 2465,
      "Ġaddition": 2466,
      "Dr": 2467,
      "Ġà¬ª": 2468,
      "Ġapplicable": 2469,
      "Ġfix": 2470,
      "à¨¨à¨Ĩ": 2471,
      "atory": 2472,
      "ropri": 2473,
      "âĢĶâĢĶâĢĶâĢĶ": 2474,
      "à¨ľà¨¹": 2475,
      "ancell": 2476,
      "Ġprep": 2477,
      "ĠForm": 2478,
      "ines": 2479,
      "Ġduty": 2480,
      "ET": 2481,
      "Ġlo": 2482,
      "Ġàª¶": 2483,
      "ries": 2484,
      "Ġä": 2485,
      "à¨°à¨¥": 2486,
      "Ġà¬ħ": 2487,
      "Ġfy": 2488,
      "Ġà¦§": 2489,
      "à¨ªà¨¨": 2490,
      "Ġgranted": 2491,
      "otion": 2492,
      "à¤µà¤ķ": 2493,
      "Ġà¤Ĩà¤¯": 2494,
      "à¤¦à¤°": 2495,
      "ending": 2496,
      "Sub": 2497,
      "ĠREPORTS": 2498,
      "45": 2499,
      "Ġà²¨": 2500,
      "Ġreceived": 2501,
      "Ġà¨¸à¨¹": 2502,
      "Ġterms": 2503,
      "Ġsatisf": 2504,
      "iti": 2505,
      "Ġver": 2506,
      "tru": 2507,
      "Ġexercise": 2508,
      "ARY": 2509,
      "Ġpassed": 2510,
      "Ġve": 2511,
      "Ġà¨°à¨ķ": 2512,
      "à¤²à¤¤": 2513,
      "ĠChair": 2514,
      "Ġtherefore": 2515,
      "Ġann": 2516,
      "Ġconf": 2517,
      "andard": 2518,
      "31": 2519,
      "à«ĩ.": 2520,
      "Ïł": 2521,
      "Ġagree": 2522,
      "ĠSUPREME": 2523,
      "à¨ķà¨²": 2524,
      "Ùħ": 2525,
      "ĠPradesh": 2526,
      "incipal": 2527,
      "à¤¨à¤¯": 2528,
      "Ġà¦Ĩà¦ĩ": 2529,
      "gan": 2530,
      "Ġcannot": 2531,
      "Ġà¨¨à¨µ": 2532,
      "à´Ĺ": 2533,
      "ART": 2534,
      "get": 2535,
      "Ġfiled": 2536,
      "aining": 2537,
      "Ġperform": 2538,
      "Ġconn": 2539,
      "Ġfund": 2540,
      "à°§": 2541,
      "Ġïģ§": 2542,
      "uly": 2543,
      "à¤®à¤ķ": 2544,
      "Ġsum": 2545,
      "ilities": 2546,
      "ĠGr": 2547,
      "Ġdetermin": 2548,
      "Ġcontained": 2549,
      "à¥ģï¿½": 2550,
      "action": 2551,
      "ock": 2552,
      "Ã¨": 2553,
      "Ġrelating": 2554,
      "Ġear": 2555,
      "Â£": 2556,
      "Øª": 2557,
      "Ġsur": 2558,
      "ateg": 2559,
      "atut": 2560,
      "Ġextend": 2561,
      "Ġmark": 2562,
      "à¨¨à¨²": 2563,
      "Ġfore": 2564,
      "ify": 2565,
      "à¤°à¤¯": 2566,
      "à´¨à´¤": 2567,
      "arch": 2568,
      "Ġla": 2569,
      "Ġrest": 2570,
      "cation": 2571,
      "à©ĩà¥¤": 2572,
      "à¤ķà¤¦": 2573,
      "à¤¤à¤¹": 2574,
      "Ġ*": 2575,
      "rust": 2576,
      "Ġrelevant": 2577,
      "Ġregistration": 2578,
      "Ġ+": 2579,
      "Ġà¨Ĩà¨®": 2580,
      "vious": 2581,
      "tt": 2582,
      "Ġbo": 2583,
      "Ġsent": 2584,
      "à¤µà¤¤": 2585,
      "Ġà¬¬": 2586,
      "Ġdu": 2587,
      "utive": 2588,
      "à¨¹à¨°": 2589,
      "à¦¦à¦°": 2590,
      "Ġsupply": 2591,
      "ĠÆ": 2592,
      "à¤§à¤¤": 2593,
      "à¬£": 2594,
      "IT": 2595,
      "ĠService": 2596,
      "à¬¥": 2597,
      "Ġcol": 2598,
      "ĠCo": 2599,
      "ĠThere": 2600,
      "à¨ĩà¨¸": 2601,
      "àªĵ": 2602,
      "Ġmentioned": 2603,
      "à¤§à¤¨": 2604,
      "ĠMunicipal": 2605,
      "Ġappear": 2606,
      "Ġà¨ľà¨µ": 2607,
      "ufact": 2608,
      "à¤ħà¤ª": 2609,
      "ÎĿ": 2610,
      "ĠSecretary": 2611,
      "rim": 2612,
      "sequ": 2613,
      "Ġcause": 2614,
      "AT": 2615,
      "à¨Ĩà¨¨": 2616,
      "Ġte": 2617,
      "Ġinstitution": 2618,
      "à¤¬à¤°": 2619,
      "ss": 2620,
      "Ġà¤¸à¤ķà¤¤": 2621,
      "self": 2622,
      "Ġorders": 2623,
      "ried": 2624,
      "Â®": 2625,
      "ĠCont": 2626,
      "Ġincome": 2627,
      "etent": 2628,
      "xk": 2629,
      "à¤ĥ": 2630,
      "à¤¯à¤¨": 2631,
      "Ġrepresent": 2632,
      "tak": 2633,
      "Ġconduct": 2634,
      "à¥ĩà¥¤": 2635,
      "ept": 2636,
      "Ġsan": 2637,
      "ĠCorporation": 2638,
      "ved": 2639,
      "Ġ50": 2640,
      "Ġ%": 2641,
      "Ġà¨¿à©Ģ": 2642,
      "IA": 2643,
      "Ġà´ī": 2644,
      "áĥ": 2645,
      "dr": 2646,
      "Ġallowed": 2647,
      "Ġà¤ĺ": 2648,
      "Ġofficers": 2649,
      "Ġå": 2650,
      "ansp": 2651,
      "Ġàªªàª°": 2652,
      "iture": 2653,
      "Ġà¦ľà¦¨": 2654,
      "stances": 2655,
      "ïģº": 2656,
      "ha": 2657,
      "owever": 2658,
      "Ġlocal": 2659,
      "Ġrate": 2660,
      "ĠRule": 2661,
      "urisd": 2662,
      "Ġrupees": 2663,
      "Ġown": 2664,
      "Ġopin": 2665,
      "à¤²à¤Ĺ": 2666,
      "Ġavailable": 2667,
      "à©ĩ.": 2668,
      "à§ĥ": 2669,
      "Ġclear": 2670,
      "Ġcent": 2671,
      "Ġprac": 2672,
      "ft": 2673,
      "Ġcopy": 2674,
      ")]": 2675,
      "ences": 2676,
      "sure": 2677,
      "à¤ķà¤ķ": 2678,
      "Ġlike": 2679,
      "80": 2680,
      "àµįâĢį": 2681,
      "Ġreturn": 2682,
      "miss": 2683,
      "Ġfee": 2684,
      "Ġà¨©": 2685,
      "olic": 2686,
      "à¥ĩï¿½": 2687,
      "kjh": 2688,
      "Ġacqu": 2689,
      "à¬§": 2690,
      "Ġcoll": 2691,
      "Ġà¨ªà¨¹": 2692,
      "à¨ĩà¨°": 2693,
      "à¥ĢâĢį": 2694,
      "Ġà¤¬à¤¨": 2695,
      "standing": 2696,
      "ĠY": 2697,
      "Ġgeneral": 2698,
      "Ġcour": 2699,
      "ace": 2700,
      "serv": 2701,
      "ug": 2702,
      "ĠGA": 2703,
      "Ġmod": 2704,
      "à´Łà´¤": 2705,
      "Ġfit": 2706,
      "Ġkn": 2707,
      "ĠPart": 2708,
      "à¨µà¨²": 2709,
      "rule": 2710,
      "gation": 2711,
      "Ġthen": 2712,
      "Ġopinion": 2713,
      "Ġreceipt": 2714,
      "raph": 2715,
      "uq": 2716,
      "urity": 2717,
      "aration": 2718,
      "stitute": 2719,
      "ublished": 2720,
      "TRA": 2721,
      "Ġà¬°": 2722,
      "urisdiction": 2723,
      "à¤Ĺà¤°": 2724,
      "à¬ĩ": 2725,
      "à²Ĺà²³": 2726,
      "Ġmeeting": 2727,
      "à¸Ģà¸Ģ": 2728,
      "inance": 2729,
      "/-": 2730,
      "56": 2731,
      "à¤¤à¤®": 2732,
      "gistrar": 2733,
      "Ġàªī": 2734,
      "ool": 2735,
      "à¤ıà¤¸": 2736,
      "ĠPanchayat": 2737,
      "fo": 2738,
      "cri": 2739,
      "les": 2740,
      "Ġá±": 2741,
      "à«Ģ.": 2742,
      "Ġdone": 2743,
      "Ġdepos": 2744,
      "à¨µà¨ļ": 2745,
      "à¤Łà¤Ł": 2746,
      "Ġemployee": 2747,
      "alty": 2748,
      "à¤īà¤ª": 2749,
      "Ġà´ļ": 2750,
      "otal": 2751,
      "Ġà¨¸à¨¥": 2752,
      "ĠFund": 2753,
      "ĠDel": 2754,
      "Ġà«§à«": 2755,
      "oper": 2756,
      "90": 2757,
      "Ġsome": 2758,
      "Ġà¤ķà¤®": 2759,
      "Ø³": 2760,
      "32": 2761,
      "à©°à¨¿": 2762,
      "à¨Ĺà¨°": 2763,
      "Ġà´Ĩ": 2764,
      "Ġà¤ľà¤¨": 2765,
      "à©±à¨¿": 2766,
      "à¬ª": 2767,
      "Ġjk": 2768,
      "à¤ķà¤°à¤¤": 2769,
      "ĠØ¯": 2770,
      "Ġread": 2771,
      "Ġprocedure": 2772,
      "Ġnomin": 2773,
      "Ġinstru": 2774,
      "ĠCivil": 2775,
      "Ġmean": 2776,
      "after": 2777,
      "Ġliable": 2778,
      "Ġvide": 2779,
      "àªĸ": 2780,
      "à¨ĸà¨Ĩ": 2781,
      "Ġcredit": 2782,
      "ivision": 2783,
      "ck": 2784,
      "ne": 2785,
      "quiry": 2786,
      "Ġvi": 2787,
      "Ġcontrol": 2788,
      "44": 2789,
      "Ġprovide": 2790,
      "à²Ł": 2791,
      "Ġà¤īà¤ļ": 2792,
      "âĢľ": 2793,
      "Ġdiffer": 2794,
      "Ġïģĺ": 2795,
      "Ġij": 2796,
      "Ġà°²": 2797,
      "Ġinst": 2798,
      "Ġdire": 2799,
      "Ġcertain": 2800,
      "PART": 2801,
      "Ġï¿½ï¿½ï¿½ï¿½": 2802,
      "ĠPolice": 2803,
      "Ġstud": 2804,
      "ĠJudge": 2805,
      "tern": 2806,
      "ĠUnion": 2807,
      "urren": 2808,
      "Ġtotal": 2809,
      "Ġmaking": 2810,
      "Ġsubstituted": 2811,
      "Ðħ": 2812,
      "ĠInsp": 2813,
      "à¨ķà¨¦": 2814,
      "ĠWe": 2815,
      "AS": 2816,
      "ĠAccount": 2817,
      "à¤¦à¤ķ": 2818,
      "Ġdisc": 2819,
      "ife": 2820,
      "Ġcircum": 2821,
      "Ġpurch": 2822,
      "à¨°à¨ª": 2823,
      "ves": 2824,
      "Ġdocuments": 2825,
      "à¤¤à¤µ": 2826,
      "truct": 2827,
      "Ġcarry": 2828,
      ".\"": 2829,
      "Ġend": 2830,
      "Ġfinancial": 2831,
      "Ġà¤Ĺà¤Ī": 2832,
      "57": 2833,
      "Ġ^": 2834,
      "à¨ķà¨£": 2835,
      "à´¥": 2836,
      "à¤Ĥï¿½": 2837,
      "Ġbl": 2838,
      "Ġappointment": 2839,
      "Ġvehic": 2840,
      "charge": 2841,
      "Ġlicence": 2842,
      "Ġïģ¾": 2843,
      "Ġà²ķ": 2844,
      "Ġdown": 2845,
      "ĠQ": 2846,
      "Ġà¤Ħ": 2847,
      "plan": 2848,
      "Ġprof": 2849,
      "Ġcommence": 2850,
      "Ġrecover": 2851,
      "§à¥": 2852,
      "Ġinsp": 2853,
      "ommend": 2854,
      "Ġappropri": 2855,
      "ah": 2856,
      "DIN": 2857,
      "Ġconsidered": 2858,
      "à²¬": 2859,
      "ĠGAZ": 2860,
      "ĠEl": 2861,
      "à¤¨à¤¦": 2862,
      "ĠØ±": 2863,
      "ĠIII": 2864,
      "à¨¿à©Ģ": 2865,
      "Ġà°¤": 2866,
      "Ġïĥħ": 2867,
      "Ġfound": 2868,
      "à¦ĵà§Ł": 2869,
      "thing": 2870,
      "à¦ı": 2871,
      "Ġbelow": 2872,
      "Ġpun": 2873,
      "ATION": 2874,
      "Ġdocument": 2875,
      "gistrate": 2876,
      "à¤·à¤£": 2877,
      "à¤¾à¤ģ": 2878,
      "ĠDevelopment": 2879,
      "¯à«": 2880,
      "Ġtion": 2881,
      "à¨©": 2882,
      "Ġactiv": 2883,
      "erted": 2884,
      "clus": 2885,
      "Ġgive": 2886,
      "Ġvalid": 2887,
      "à¨¸à¨¥": 2888,
      "Hk": 2889,
      "Ġdem": 2890,
      "Ġà¤¤à¤¥": 2891,
      "ĠDelhi": 2892,
      "Ġexamination": 2893,
      "hy": 2894,
      "ĠRec": 2895,
      "apter": 2896,
      "app": 2897,
      "Ġà®ī": 2898,
      "ÙĦ": 2899,
      "Ġwell": 2900,
      "ined": 2901,
      "Ġjurisdiction": 2902,
      "ull": 2903,
      "88": 2904,
      "Ġhand": 2905,
      "ĠBen": 2906,
      "Ġopen": 2907,
      "Ġshow": 2908,
      "Ġtest": 2909,
      "XTRA": 2910,
      "Ġexcept": 2911,
      "yp": 2912,
      "ides": 2913,
      "à¤¹à¤°": 2914,
      "Ġjudgment": 2915,
      "PT": 2916,
      "................................................................": 2917,
      "à®´": 2918,
      "Ġà¤¸à¤ķ": 2919,
      "ustom": 2920,
      "Ġamend": 2921,
      "Ġàª²": 2922,
      "MENT": 2923,
      "Ġ40": 2924,
      "Ġà¨īà¨¨": 2925,
      "Ġà¨Ĩà¨°": 2926,
      "III": 2927,
      "Ġwriting": 2928,
      "à¤¤à¤¹à¤¤": 2929,
      "àªı": 2930,
      "Ġindu": 2931,
      "à²§": 2932,
      "ested": 2933,
      "54": 2934,
      "hol": 2935,
      "à¦«": 2936,
      "CT": 2937,
      "58": 2938,
      "Ġconv": 2939,
      "Ġdeli": 2940,
      "Ġmanufact": 2941,
      "Ġpossession": 2942,
      "ĠCl": 2943,
      "gisl": 2944,
      "Ġ}": 2945,
      "Ġfr": 2946,
      "ecutive": 2947,
      "mises": 2948,
      "ï¿½à¤¿": 2949,
      "à¨ľà¨¨": 2950,
      "Ġregulations": 2951,
      "Ġanything": 2952,
      "à¨²à¨Ĩ": 2953,
      "Ġstatement": 2954,
      "Ġlicen": 2955,
      "Ġaccording": 2956,
      "à¤µà¤¶": 2957,
      "ĠSing": 2958,
      "Com": 2959,
      "amily": 2960,
      "fficient": 2961,
      "Ġasse": 2962,
      "Ġelection": 2963,
      "Ġabs": 2964,
      "à¤¯à¤¦": 2965,
      "Ġassessment": 2966,
      "ough": 2967,
      "Ġsanction": 2968,
      "Ġsaf": 2969,
      "ĠRegistrar": 2970,
      "Ġvac": 2971,
      "],": 2972,
      "Ã¦": 2973,
      "Ġà¨²à¨Ĺ": 2974,
      "Ġdecla": 2975,
      "ob": 2976,
      "Ġdesign": 2977,
      "Ġà¨¿à©ĩ": 2978,
      "jection": 2979,
      "Ġvari": 2980,
      "Hkk": 2981,
      "ê¯¤": 2982,
      "à¨¶": 2983,
      "Ġapplicant": 2984,
      "ribution": 2985,
      "Ġprevious": 2986,
      "tical": 2987,
      "à±Ĥ": 2988,
      "à¨¼à¨¾à¨Ĥ": 2989,
      "Ġoccup": 2990,
      "70": 2991,
      "Ġà¤Ľ": 2992,
      "àª²àª®": 2993,
      "THE": 2994,
      "à¤ĸà¤¤": 2995,
      "Ġbr": 2996,
      "à¤¤à¤¨": 2997,
      "Ġà¤ħà¤ªà¤¨": 2998,
      "Ġà¤Ĺà¤ı": 2999,
      "Ġsep": 3000,
      "Ġlet": 3001,
      "istant": 3002,
      "ivid": 3003,
      "Ġelectr": 3004,
      "roll": 3005,
      "Ġrecommend": 3006,
      "hib": 3007,
      "Ġà²µ": 3008,
      "à¤ķà¤²": 3009,
      "Ġway": 3010,
      "UL": 3011,
      "à¤°à¤Ń": 3012,
      "olution": 3013,
      "Ġcommencement": 3014,
      "Ġà¤Ī": 3015,
      "Ġsel": 3016,
      "Ġà°Ĩ": 3017,
      "Ġscheme": 3018,
      "orks": 3019,
      "Ġdetails": 3020,
      "à¤¨à¤°": 3021,
      "ising": 3022,
      "mb": 3023,
      "Ġmatters": 3024,
      "aring": 3025,
      "Ġapproval": 3026,
      "ĠAny": 3027,
      "ĠRaj": 3028,
      "Ġà¨¦à¨²": 3029,
      "Ġparties": 3030,
      "à±Ĭ": 3031,
      "ading": 3032,
      "under": 3033,
      "Ġreference": 3034,
      "enditure": 3035,
      "tire": 3036,
      "Ġer": 3037,
      "à¤µà¤¹": 3038,
      "Ġemployees": 3039,
      "ology": 3040,
      "Ġà¤īà¤¨": 3041,
      "come": 3042,
      "ĠÙĪ": 3043,
      "An": 3044,
      "à¤³": 3045,
      "EL": 3046,
      "Ġï¿½ï¿½ï¿½ï¿½ï¿½ï¿½ï¿½ï¿½": 3047,
      "à¤ķà¤¨": 3048,
      "Âº": 3049,
      "à¤¢": 3050,
      "ĠSo": 3051,
      "Ġsociety": 3052,
      "iding": 3053,
      "lier": 3054,
      "soci": 3055,
      "à´¯à´®": 3056,
      "ĠRep": 3057,
      "try": 3058,
      "ĠDis": 3059,
      "Ġowner": 3060,
      "à¤¾à¥į": 3061,
      "IL": 3062,
      "Ġcover": 3063,
      "bt": 3064,
      "ĠPres": 3065,
      "ĠColl": 3066,
      "Ġdifferent": 3067,
      "99": 3068,
      "à¤¯à¤¸": 3069,
      "IV": 3070,
      "Ġext": 3071,
      "ĠOrder": 3072,
      "Ġwhile": 3073,
      "Ġimmedi": 3074,
      "à´ķàµ¾": 3075,
      "à§Ģà§ĩ": 3076,
      "ĠEvery": 3077,
      "Ġq": 3078,
      "Ġ-----": 3079,
      "Ġsit": 3080,
      "à¤²à¤¯à¤ķ": 3081,
      "Ã²": 3082,
      "Ġindic": 3083,
      "Ġappropriate": 3084,
      "à´ľ": 3085,
      "á¾»": 3086,
      "========": 3087,
      "à¤īà¤¸": 3088,
      "Ġ2017": 3089,
      "cipl": 3090,
      "Â±": 3091,
      "Ġprison": 3092,
      "irm": 3093,
      "vent": 3094,
      "Ġindust": 3095,
      "arn": 3096,
      "Ġfive": 3097,
      "Ġalong": 3098,
      "Ġcontinu": 3099,
      "Ġterm": 3100,
      "Ġvuq": 3101,
      "à¨Ĩà¨¦": 3102,
      "unity": 3103,
      "Rs": 3104,
      "ĠServices": 3105,
      "ĠOf": 3106,
      "Ġpublished": 3107,
      "75": 3108,
      "Ġ100": 3109,
      "Ġcalled": 3110,
      "ĠMagistrate": 3111,
      "ĠPublic": 3112,
      "planation": 3113,
      "ansport": 3114,
      "ORDIN": 3115,
      "Ġà¤ľà¤¬": 3116,
      "Ġhold": 3117,
      "Ġeven": 3118,
      "CHA": 3119,
      "Ġàªļ": 3120,
      "ĠRegulations": 3121,
      "à¨¨à¨¯": 3122,
      "ns": 3123,
      "ghts": 3124,
      "à¥ĭï¿½": 3125,
      "à¤Ĩà¤°": 3126,
      "ORM": 3127,
      "ata": 3128,
      "aff": 3129,
      "Ġparty": 3130,
      "Ġpremises": 3131,
      "à¤Ĺà¤Ī": 3132,
      "Name": 3133,
      "ared": 3134,
      "100": 3135,
      "Ġfull": 3136,
      "ĠAppeal": 3137,
      "rk": 3138,
      "à²£": 3139,
      "Ġà¤ħà¤µ": 3140,
      "Ġà¤Ĩà¤¹": 3141,
      "à¨ĩà¨¦": 3142,
      "Ġsepar": 3143,
      "à¤ľà¤¤": 3144,
      "Ġcircumstances": 3145,
      "à¨¤à¨®": 3146,
      "Ãº": 3147,
      "Ġsal": 3148,
      "à¦²à¦°": 3149,
      "Ġduties": 3150,
      "ph": 3151,
      "ineer": 3152,
      "Ġbenef": 3153,
      "01": 3154,
      "à¨¿à©ĩ": 3155,
      "Ġà°ī": 3156,
      "à¤£à¤¯": 3157,
      "Ġreasons": 3158,
      "ATE": 3159,
      "Ġdisput": 3160,
      "XX": 3161,
      "Ġà©Ĥà©°": 3162,
      "Ġ1956": 3163,
      "08": 3164,
      "ETTE": 3165,
      "à´¹": 3166,
      "Ġà¨īà¨¹à¨¨": 3167,
      "Ġche": 3168,
      "Ġlist": 3169,
      "ĠPlan": 3170,
      "Ġpension": 3171,
      "à¨°à¨¬": 3172,
      "Ġconstruction": 3173,
      "ancy": 3174,
      "ls": 3175,
      "Ġà¤¸à¤¹": 3176,
      "à¤°à¤¶": 3177,
      "Ġwhom": 3178,
      "à¨°à¨¹": 3179,
      "cies": 3180,
      "Ġnature": 3181,
      "uted": 3182,
      "à¨¨à¨¯à¨®": 3183,
      "Ġ**": 3184,
      "Ġadj": 3185,
      "Ġà¤īà¤¤": 3186,
      "àª®àª¨": 3187,
      "io": 3188,
      "ecial": 3189,
      "Ġrespons": 3190,
      "Ġaward": 3191,
      "ute": 3192,
      "lied": 3193,
      "à¨ķà¨¹": 3194,
      "à¦¡": 3195,
      "dul": 3196,
      "ĠGAZETTE": 3197,
      "Ġà¬Ĩ": 3198,
      "Ġlegal": 3199,
      "riminal": 3200,
      "Ġcourse": 3201,
      "52": 3202,
      "ana": 3203,
      "ORDINARY": 3204,
      "Ġà¤ħà¤¥": 3205,
      "Ãİ": 3206,
      "essee": 3207,
      "Ġrecogn": 3208,
      "ĠArticle": 3209,
      "sec": 3210,
      "Ġsix": 3211,
      "uation": 3212,
      "Ġcharges": 3213,
      "Ġfar": 3214,
      "à¤µà¤¨": 3215,
      "à¤¾.": 3216,
      "ĠÛĴ": 3217,
      "Pro": 3218,
      "à¬Ļ": 3219,
      "à¯Ĭ": 3220,
      "ĠComm": 3221,
      "Ġhereby": 3222,
      "Ġsubmitted": 3223,
      "isation": 3224,
      "Ġprior": 3225,
      "Ġundertak": 3226,
      "XTRAORDINARY": 3227,
      "à¤ķà¤®": 3228,
      "ories": 3229,
      "Ġsubs": 3230,
      "Ġaudit": 3231,
      "Ġà¨¿à©±": 3232,
      "à¥Īà¤Ĥà¥¤": 3233,
      "ensation": 3234,
      "ĠÃ§": 3235,
      "sequent": 3236,
      "Âĥ": 3237,
      "Ġensure": 3238,
      "à¬Ĥ": 3239,
      "Ġabout": 3240,
      "Ġà´Ĵ": 3241,
      "erve": 3242,
      "ĠSC": 3243,
      "ension": 3244,
      "Ġà¨¿à©Ī": 3245,
      "Ġcompetent": 3246,
      "Ġmar": 3247,
      "Ġprot": 3248,
      "Ġaccused": 3249,
      "istry": 3250,
      "Ġfixed": 3251,
      "Ġrights": 3252,
      "&&": 3253,
      "ression": 3254,
      "ĠàªŃ": 3255,
      "à¨¨à¨ľ": 3256,
      "withstanding": 3257,
      "Ġher": 3258,
      "à´¬": 3259,
      "à´¯à´¤": 3260,
      "ĠIND": 3261,
      "App": 3262,
      "Ġà¤ĩà¤¸à¤ķ": 3263,
      "ÃĢÃĦÃ": 3264,
      "osition": 3265,
      "à¥ĭ,": 3266,
      "77": 3267,
      "à¨¸à¨®": 3268,
      "Ġagreement": 3269,
      "Ġà¨ķà¨®": 3270,
      "á¾¹": 3271,
      "Ġdevelopment": 3272,
      "Ġremov": 3273,
      "à¤Ĥà¤¿": 3274,
      "tenance": 3275,
      "à¤ªà¤ķ": 3276,
      "àªŃ": 3277,
      "41": 3278,
      "ĠNational": 3279,
      "Ġ36": 3280,
      "à±Ī": 3281,
      "AM": 3282,
      "enior": 3283,
      "à¤ľà¤¸": 3284,
      "Ġfunctions": 3285,
      "Ġlear": 3286,
      "à°ľ": 3287,
      "Ġà¨®à¨¹": 3288,
      "Ġconsideration": 3289,
      "bit": 3290,
      "Ġà¤ķà¤²": 3291,
      "42": 3292,
      "ars": 3293,
      "Ġmeas": 3294,
      "Ġauthorised": 3295,
      "isition": 3296,
      "Ġfinal": 3297,
      "Ġmone": 3298,
      "ful": 3299,
      "Ġcarried": 3300,
      "Ġexisting": 3301,
      "à¥ĩà¤Ĥ,": 3302,
      "illage": 3303,
      "oh": 3304,
      "Ġ|": 3305,
      "Ġmanagement": 3306,
      "51": 3307,
      "à¤Ĳà¤¸": 3308,
      "Ġà¤¸à¤°": 3309,
      "oa": 3310,
      "uses": 3311,
      "Ġbody": 3312,
      "Ġàªħàªª": 3313,
      "Ġà¤¹à¤®": 3314,
      "à¨ħà¨µ": 3315,
      "Ġà°°": 3316,
      "Ġinclude": 3317,
      "Ġcateg": 3318,
      "EN": 3319,
      "Ġà¨¸à¨®à¨Ŀ": 3320,
      "read": 3321,
      "à¨ķà¨°à¨¨": 3322,
      "Ad": 3323,
      "á¾¿": 3324,
      "Ġcorre": 3325,
      "gram": 3326,
      "Ġsim": 3327,
      "Ġapproved": 3328,
      "ĠÂª": 3329,
      "à¨¼à©į": 3330,
      "ĠSingh": 3331,
      "Ġelig": 3332,
      "fl": 3333,
      "à¨°à¨ļ": 3334,
      "adu": 3335,
      "à´ķà´³": 3336,
      "Ġà²°": 3337,
      "Ġà¦īà¦ª": 3338,
      "Ġwhose": 3339,
      "Ġft": 3340,
      "à¤¨à¤¨": 3341,
      "ured": 3342,
      "chool": 3343,
      "Ġwhat": 3344,
      "Ġopp": 3345,
      "76": 3346,
      "à°£": 3347,
      "Ġlevel": 3348,
      "fe": 3349,
      "Ġaccounts": 3350,
      "PTER": 3351,
      "com": 3352,
      "Ġareas": 3353,
      "Ġà¨Ĩà¨§": 3354,
      "Ġorig": 3355,
      "trict": 3356,
      "à¬ļ": 3357,
      "ĠExecutive": 3358,
      "Ġanother": 3359,
      "ĠWhen": 3360,
      "âĢĮ": 3361,
      "Ġlaid": 3362,
      "à²¹": 3363,
      "Ġexceeding": 3364,
      "posal": 3365,
      "Ġà¨¿à©ĭ": 3366,
      "ancellor": 3367,
      "Ġ32": 3368,
      "à¤ªà¤®": 3369,
      "Ġgovern": 3370,
      "ĠNot": 3371,
      "à¤Ĩà¤¦": 3372,
      "Ġà¦ĩ": 3373,
      "Ġà¤¦à¤ķ": 3374,
      "à²¶": 3375,
      "taining": 3376,
      "State": 3377,
      "Ġà¦¹à§Ł": 3378,
      "àª°àª£": 3379,
      "intend": 3380,
      "Â¤": 3381,
      "à¨ĸà¨£": 3382,
      "Ġmis": 3383,
      "xx": 3384,
      "Ġà¦Ń": 3385,
      "Ġà¬®": 3386,
      "Ġneed": 3387,
      "duled": 3388,
      "RO": 3389,
      "Ġdraw": 3390,
      "Ġmarket": 3391,
      "Ġà¦ľà¦¨ÒĿ": 3392,
      "operative": 3393,
      "ery": 3394,
      "à¤¸à¤¨": 3395,
      "vate": 3396,
      "agraph": 3397,
      "à¦°à¦£": 3398,
      "Â¸": 3399,
      "Ġdid": 3400,
      "itation": 3401,
      "Ġentr": 3402,
      "à¨ľà¨µ": 3403,
      "olicy": 3404,
      "à¬Ł": 3405,
      "ĠTHE": 3406,
      "Ġà¦ļ": 3407,
      "Ġgener": 3408,
      "Ġà¤¸à¤Ń": 3409,
      "pond": 3410,
      "Ġà²Ĩ": 3411,
      "Ġà¤¤à¤¹à¤¤": 3412,
      "Ġitem": 3413,
      "ĠInspector": 3414,
      "ĠFore": 3415,
      "à©Ĥà¨¿à©°": 3416,
      "Ġplan": 3417,
      "ired": 3418,
      "ĠAdv": 3419,
      "à¨ĩà¨ķ": 3420,
      "Âĩ": 3421,
      "perintend": 3422,
      "Ġaddress": 3423,
      "Ġïģ«": 3424,
      "Ġà¤īà¤¨à¤ķ": 3425,
      "Ġspecific": 3426,
      "78": 3427,
      "à¨ĵ": 3428,
      "Ġresult": 3429,
      "Ġsecond": 3430,
      "Ġthir": 3431,
      "à¤°à¤ĸ": 3432,
      "Ġworking": 3433,
      "Â´": 3434,
      "orts": 3435,
      "alc": 3436,
      "Un": 3437,
      "ĠBom": 3438,
      "Ġpermit": 3439,
      "ultural": 3440,
      "53": 3441,
      "Ãĥ": 3442,
      "Ġfail": 3443,
      "Ġà¨µà¨°à¨¤": 3444,
      "Ġrespective": 3445,
      "ink": 3446,
      "Ġgiving": 3447,
      "tax": 3448,
      "Ġ_": 3449,
      "pril": 3450,
      "vey": 3451,
      "á¾º": 3452,
      "Ð«": 3453,
      "Ġcome": 3454,
      "Ġpermission": 3455,
      "Ġïģº": 3456,
      "ĠàªĨàªª": 3457,
      "Ġà¤®à¤¹": 3458,
      "pur": 3459,
      "à¤ķà¤¹": 3460,
      "à¨¹à¨®": 3461,
      "79": 3462,
      "Ġïĥ¬": 3463,
      "Ġà¦ıà¦ķÎľà¦Ł": 3464,
      "Ġà¨¬à¨°": 3465,
      "oad": 3466,
      "AD": 3467,
      "43": 3468,
      "itness": 3469,
      "Ġholding": 3470,
      "à¨¸à¨¦": 3471,
      "ta": 3472,
      "CHAPTER": 3473,
      "Ġà°¦": 3474,
      "Ġchild": 3475,
      "Ġph": 3476,
      "eep": 3477,
      "ĠCer": 3478,
      "ĠIncome": 3479,
      "à¤¨à¤µ": 3480,
      "àªł": 3481,
      "Ġbased": 3482,
      "à¤ħà¤ªà¤¨": 3483,
      "à¤¨à¤¤": 3484,
      "Ai": 3485,
      "Ġextent": 3486,
      "à¨ħà¨°": 3487,
      "________________________________": 3488,
      "gu": 3489,
      "Ġobserv": 3490,
      "ĠÎŃà¦¦": 3491,
      "à¤īà¤ļ": 3492,
      "ĠHk": 3493,
      "Ġexper": 3494,
      "Ġinvol": 3495,
      "Ġsee": 3496,
      "erg": 3497,
      "zÃĢ": 3498,
      "à¤ªà¤·": 3499,
      "Ã°": 3500,
      "Ġà¨¸à¨Ń": 3501,
      "ruit": 3502,
      "Ġbank": 3503,
      "Ġdecl": 3504,
      "ĠNotification": 3505,
      "Ġà¨ĩà¨ķ": 3506,
      "Ġà¨Ĥ": 3507,
      "Ġfamily": 3508,
      "Ġcandidate": 3509,
      "à¬·": 3510,
      "icial": 3511,
      "à©Ģà¨¿": 3512,
      "ĠIndust": 3513,
      "à«ĩ,": 3514,
      "ĠAg": 3515,
      "à¨¨à¨°à¨§": 3516,
      "ĠChairman": 3517,
      "person": 3518,
      "ours": 3519,
      "á¾°": 3520,
      "%)": 3521,
      "à¤¨à¤¸": 3522,
      "Ġà¨°à¨¹": 3523,
      "ĠAppell": 3524,
      "Ġïĥĥ": 3525,
      "Ġà¤µà¤°": 3526,
      "ĠAc": 3527,
      "Ġstandard": 3528,
      "sh": 3529,
      "ĠDeputy": 3530,
      "á¾Ĳ": 3531,
      "Ġleast": 3532,
      "ĠAssistant": 3533,
      "Ġconsum": 3534,
      "ĠEXTRAORDINARY": 3535,
      "à´´": 3536,
      "à¦²à¦ķ": 3537,
      "adem": 3538,
      "Ġ39": 3539,
      "Ġcre": 3540,
      "unj": 3541,
      "Ġshe": 3542,
      "ury": 3543,
      "Ġsol": 3544,
      "à¨²à¨Ī": 3545,
      "cing": 3546,
      "(ï¿½": 3547,
      "pted": 3548,
      "cription": 3549,
      "ĠEdu": 3550,
      "àµģ.": 3551,
      "Ġà¤Ĩà¤²": 3552,
      "igher": 3553,
      "td": 3554,
      "Th": 3555,
      "Â¡": 3556,
      "Ġpolice": 3557,
      "lause": 3558,
      "rs": 3559,
      "arily": 3560,
      "eng": 3561,
      "á¾·": 3562,
      "66": 3563,
      "Ġfacts": 3564,
      "ĠDec": 3565,
      "ĠGu": 3566,
      "aper": 3567,
      "Ġreasonable": 3568,
      "orted": 3569,
      "à¤Łà¤¨": 3570,
      "lig": 3571,
      "ĠINDIA": 3572,
      "Ġshare": 3573,
      "ĠApril": 3574,
      "à²ľ": 3575,
      "ĠMarch": 3576,
      "Ġ{": 3577,
      "Ġà§§à§¯à§": 3578,
      "lk": 3579,
      "---": 3580,
      "Ġdecree": 3581,
      "Ġlearned": 3582,
      "akh": 3583,
      "à¤ľà¤§": 3584,
      "Ġsecurity": 3585,
      "à¨¸à¨ª": 3586,
      "ĠVice": 3587,
      "Ġà¤Ĩà¤§": 3588,
      "PP": 3589,
      "Ġtherein": 3590,
      "ï¿½ï¿½ï¿½ï¿½ï¿½ï¿½ï¿½ï¿½ï¿½ï¿½ï¿½ï¿½ï¿½ï¿½ï¿½ï¿½ï¿½ï¿½ï¿½ï¿½ï¿½ï¿½ï¿½ï¿½ï¿½ï¿½ï¿½ï¿½ï¿½ï¿½ï¿½ï¿½": 3591,
      "~~": 3592,
      "Ġ1961": 3593,
      "Ġfdlh": 3594,
      "àª°àª¤": 3595,
      "à¤¶à¤¨": 3596,
      "Ġadministr": 3597,
      "Ġ1950": 3598,
      "Ġmi": 3599,
      "Ġtem": 3600,
      "Ġminimum": 3601,
      "à¤¤à¤¤": 3602,
      "Ġ33": 3603,
      "à¨¹à¨¨": 3604,
      "à¤¿à¤¿": 3605,
      "Ġvarious": 3606,
      "Ġpenalty": 3607,
      "ious": 3608,
      "Ġir": 3609,
      "Act": 3610,
      "ble": 3611,
      "Ġproposed": 3612,
      "Amendment": 3613,
      "uary": 3614,
      "à¤·à¤ķ": 3615,
      "Ġà¬¦": 3616,
      "Ġà¨ħà¨ľ": 3617,
      "............": 3618,
      "Ġstatut": 3619,
      "à¬¶": 3620,
      "Ġiden": 3621,
      "ĠProv": 3622,
      "go": 3623,
      "áĥķ": 3624,
      "Ġfine": 3625,
      "Ġconferred": 3626,
      "à¦°à¦°": 3627,
      "à³Ĥ": 3628,
      "Ġactivities": 3629,
      "Ġplain": 3630,
      "Ġexpenditure": 3631,
      "ibility": 3632,
      "à¤µà¤µ": 3633,
      "à´Ń": 3634,
      "Ġdeath": 3635,
      "Ġmoney": 3636,
      "à®Ļ": 3637,
      "Ġcomplain": 3638,
      "ĠThese": 3639,
      "Ġà¨¨à¨¤": 3640,
      "Ġpromotion": 3641,
      "Ġtext": 3642,
      "72": 3643,
      "Ġrevenue": 3644,
      "Ġà´İà´¨": 3645,
      "ividual": 3646,
      "hod": 3647,
      "Ġfn": 3648,
      "Ġà¨ħà¨µ": 3649,
      "Ġhead": 3650,
      "Ġwhole": 3651,
      "Ġimmediately": 3652,
      "ĠProcedure": 3653,
      "Ġmaintained": 3654,
      "á±Ł": 3655,
      "Ġrelation": 3656,
      "ĠàŃĩ": 3657,
      "Ġca": 3658,
      "Ġarr": 3659,
      "Section": 3660,
      "unjab": 3661,
      "lative": 3662,
      "à²ļ": 3663,
      "onment": 3664,
      "gislature": 3665,
      "Ġentry": 3666,
      "à¤ªà¤¯": 3667,
      "ĠST": 3668,
      "ĠChapter": 3669,
      "Ġï¿½ï¿½ï¿½ï¿½ï¿½": 3670,
      "ordin": 3671,
      "clos": 3672,
      "Ġstated": 3673,
      "Ġsusp": 3674,
      "Ġestablishment": 3675,
      "itle": 3676,
      ");": 3677,
      "ases": 3678,
      "à¨¿à¨¿à©±": 3679,
      "Ġeng": 3680,
      "à¦°à¦ķ": 3681,
      "resaid": 3682,
      "ipment": 3683,
      "Ġà¤¯à¤¦": 3684,
      "ĠRevenue": 3685,
      "ï¿½!": 3686,
      "Ġà©Ľ": 3687,
      "owled": 3688,
      "à¤¿,": 3689,
      "Ġà¦ħà¦§": 3690,
      "Ġce": 3691,
      "Ġpoint": 3692,
      "àª°àª¨": 3693,
      "aft": 3694,
      "tify": 3695,
      "Ġsufficient": 3696,
      "à¨¬à¨²": 3697,
      "ĠLaw": 3698,
      "à³Ģ": 3699,
      "Ġedu": 3700,
      "à¤¤à¤ķà¤°à¤¨": 3701,
      "Ġà¤ł": 3702,
      "eral": 3703,
      "Ġàªķàª²àª®": 3704,
      "iso": 3705,
      "ĠCollector": 3706,
      "ield": 3707,
      "Ġafo": 3708,
      "onic": 3709,
      "Ġcompensation": 3710,
      "Ġà¤¸à¤¦": 3711,
      "Ġra": 3712,
      "à¤¹à¤®": 3713,
      "à¨µà¨µ": 3714,
      "ulated": 3715,
      "SEC": 3716,
      "Ġment": 3717,
      "ĠEngineer": 3718,
      "tructure": 3719,
      "Ġaforesaid": 3720,
      "à¤¯à¤®à¤ķ": 3721,
      "à¤Ĺà¤ķ": 3722,
      "à©Ģ)": 3723,
      "IR": 3724,
      "Ġinspection": 3725,
      "aximum": 3726,
      "Ġsuper": 3727,
      "Ġà¤¤à¤°": 3728,
      "Ġoperation": 3729,
      "ĠLand": 3730,
      "à¨¦à¨²": 3731,
      "lies": 3732,
      "cles": 3733,
      "86": 3734,
      "ares": 3735,
      "ĠàªĹ": 3736,
      "abour": 3737,
      "Ġà¨īà¨²": 3738,
      "itor": 3739,
      "Ġlev": 3740,
      "Ġrequirements": 3741,
      "à¤§à¤®": 3742,
      "Ġemployed": 3743,
      "à¨ĩà¨¹": 3744,
      "ĠÆµ": 3745,
      "ustice": 3746,
      "ĠManagement": 3747,
      "Ġhowever": 3748,
      "Ġvehicle": 3749,
      "ĠÇ": 3750,
      "bay": 3751,
      "à¨Īà¨Ĩ": 3752,
      "Ġmedical": 3753,
      "Ġà©Ģ": 3754,
      "ĠName": 3755,
      "Ġïĥ¤": 3756,
      "á¾µ": 3757,
      "Ġà¤ĵ": 3758,
      "Ġservant": 3759,
      "Ġà¬ī": 3760,
      "Ġfe": 3761,
      "à¤ļà¤¤": 3762,
      "à¥ĭà¤¿": 3763,
      "à¦¬à¦ļ": 3764,
      "Ġauthorities": 3765,
      "à¦¦à¦¨": 3766,
      "ĠIns": 3767,
      "à¨¦à¨µ": 3768,
      "au": 3769,
      "Ġemployer": 3770,
      "Ġassign": 3771,
      "tract": 3772,
      "ĠFinance": 3773,
      "à¤°à¤ª": 3774,
      "ĠAdministr": 3775,
      "Ġà¨¦à¨°": 3776,
      "ilar": 3777,
      "kn": 3778,
      "Hkkx": 3779,
      "Con": 3780,
      "Ġloss": 3781,
      "angu": 3782,
      "ĠSpecial": 3783,
      "Ġcommunic": 3784,
      "Ġà¥§à¥": 3785,
      "Ġà¦¸à¦®": 3786,
      "âĢĵâĢĵâĢĵâĢĵ": 3787,
      "Ġprincipal": 3788,
      "Ġà¨¹à¨°": 3789,
      "aka": 3790,
      "Ġwitness": 3791,
      ",-": 3792,
      "Ġà´ħà´¤": 3793,
      "cluding": 3794,
      "Ġrecords": 3795,
      "à§ĭ": 3796,
      "Ġàª¸àª®": 3797,
      "65": 3798,
      "ets": 3799,
      "Ġà¨¸à¨°": 3800,
      "[;": 3801,
      "à©ŀ": 3802,
      "ĠïĥĶ": 3803,
      "Ġà¤ķà¤°à¤£": 3804,
      "ince": 3805,
      "Ġ2019": 3806,
      "Ġdetermined": 3807,
      "05": 3808,
      "ĠAmendment": 3809,
      "Ġregarding": 3810,
      "aged": 3811,
      "Ġadditional": 3812,
      "ĠMad": 3813,
      "Ġà´²": 3814,
      "anies": 3815,
      "enses": 3816,
      "Ġbecause": 3817,
      "Ġà¨ķà¨²": 3818,
      "Ġsubst": 3819,
      "reas": 3820,
      "Ġà¤ªà¤¦": 3821,
      "be": 3822,
      "ready": 3823,
      "à²·": 3824,
      "ï¿½\"": 3825,
      "à¯į,": 3826,
      "à¦¬à¦§": 3827,
      "Ġincludes": 3828,
      "Ġrent": 3829,
      "ds": 3830,
      "Ġà¤Ĩà¤£": 3831,
      "ÃīÃ¤": 3832,
      "Ġorgan": 3833,
      "cent": 3834,
      "Ġà¦¬ÒĿ": 3835,
      "Ġà´¬": 3836,
      "à¨ıà¨¦": 3837,
      "Ġcapital": 3838,
      "Ġà¤°à¤ĸ": 3839,
      "Ġconnection": 3840,
      "á¾½": 3841,
      "Ġcommittee": 3842,
      "Ġproduct": 3843,
      "Ġàªħàª§": 3844,
      "73": 3845,
      "side": 3846,
      "co": 3847,
      "urance": 3848,
      "à¦¼": 3849,
      "à¤®à¤¨": 3850,
      "han": 3851,
      "à¨°à¨£": 3852,
      "ÂĤ": 3853,
      "Ġnotified": 3854,
      "ademic": 3855,
      "Ġearlier": 3856,
      "iance": 3857,
      "Ġeligible": 3858,
      "ĠïĤ»": 3859,
      "nel": 3860,
      "isonment": 3861,
      "à¨ĩà¨¤": 3862,
      "Ġrecorded": 3863,
      "Ġduly": 3864,
      "Ġimport": 3865,
      "Ġsatisfied": 3866,
      "Ġà¨¦à¨°à¨¸": 3867,
      "Ġalready": 3868,
      "Ġrefund": 3869,
      "equ": 3870,
      "Ġcorrect": 3871,
      "Ġcandidates": 3872,
      "vir": 3873,
      "Ġposts": 3874,
      "ĠOther": 3875,
      "à§ľ": 3876,
      "lege": 3877,
      "missible": 3878,
      "Ġcro": 3879,
      "Ġà¨¢": 3880,
      "Ġà¤¸à¤®à¤¯": 3881,
      "lication": 3882,
      "Ġofficial": 3883,
      "89": 3884,
      "Ġà´ĩ": 3885,
      "à¨ħà¨¨": 3886,
      "à´¡": 3887,
      "à¨ĸà¨°": 3888,
      "69": 3889,
      "Ġaccept": 3890,
      "une": 3891,
      "Ġlast": 3892,
      "Ġfill": 3893,
      "Ġarre": 3894,
      "à¤Ĩà¤¯": 3895,
      "à´ķà´¯": 3896,
      "Ġword": 3897,
      "ĠCompany": 3898,
      "ĠOfficial": 3899,
      "Ġindividual": 3900,
      "à¥Ģà¤¿": 3901,
      "Ġexem": 3902,
      "à±įà°¿": 3903,
      "manent": 3904,
      "ĠIV": 3905,
      "Dep": 3906,
      "ÃĮ": 3907,
      "à¬Ĺ": 3908,
      "82": 3909,
      "Ã¤": 3910,
      "ister": 3911,
      "Ġ34": 3912,
      "acity": 3913,
      "Ġàª¥": 3914,
      "Ġsubsequent": 3915,
      "law": 3916,
      "Ġà¨ħà¨ªà¨°": 3917,
      "à¤¸à¤¹": 3918,
      "Ġproject": 3919,
      "Çħ": 3920,
      "à§¦": 3921,
      "à§ģà¦¿": 3922,
      "àª°àªķ": 3923,
      "à¤°à¤¨": 3924,
      "à¨ķà¨Łà¨°": 3925,
      "Ġlease": 3926,
      "àµĬ": 3927,
      "Ġà®İà®©": 3928,
      "ained": 3929,
      "Ġà¨¬à¨¹": 3930,
      "Ġallot": 3931,
      "Ġaccom": 3932,
      "esti": 3933,
      "Ġfurnish": 3934,
      "à±įà°¾": 3935,
      "Ġredu": 3936,
      "Â¹": 3937,
      "Total": 3938,
      "Ġmeaning": 3939,
      "aries": 3940,
      "Ġord": 3941,
      "Ġtransaction": 3942,
      "ium": 3943,
      "ĠTechn": 3944,
      "ĠSuperintend": 3945,
      "à¥ĩà¤¿": 3946,
      "ĠEm": 3947,
      "ential": 3948,
      "Ġmaintenance": 3949,
      "Î¦": 3950,
      "ercial": 3951,
      "Ġtrial": 3952,
      "gÃĢ": 3953,
      "Ġaut": 3954,
      "Ġà´Ĵà´°": 3955,
      "Ġ),": 3956,
      "ïĤĬ": 3957,
      "Ġreserv": 3958,
      "¯à¥": 3959,
      "ĠDivision": 3960,
      "urrent": 3961,
      "Ġinserted": 3962,
      "Ð¾": 3963,
      "Ġexpression": 3964,
      "ĠPunjab": 3965,
      "--------------------------------": 3966,
      "ka": 3967,
      "aster": 3968,
      "Ġprice": 3969,
      "à³ķ": 3970,
      "Ġsett": 3971,
      "Ġwritten": 3972,
      "Ġdemand": 3973,
      "lia": 3974,
      "Ġà¨ħà¨°": 3975,
      "ĠPer": 3976,
      "Ġà¦ĵ": 3977,
      "Ġdistrict": 3978,
      "Ġà¤ħà¤Ń": 3979,
      "àµĪ": 3980,
      "Ġproviso": 3981,
      "ience": 3982,
      "oor": 3983,
      "Ġparticulars": 3984,
      "Ġobtained": 3985,
      "Ġà¤°à¤¹": 3986,
      "Fk": 3987,
      "à¨®à¨°": 3988,
      "à¤µà¤¸": 3989,
      "Ġà¤ľà¤¹": 3990,
      "Ġ2016": 3991,
      "Ġà²¹": 3992,
      "à¨¤à¨µ": 3993,
      "Ġà¨Ĩà¨®à¨¦à¨¨": 3994,
      "ïģºïģ§": 3995,
      "Ġà²İ": 3996,
      "Ġbelong": 3997,
      "See": 3998,
      "Ġà¦Ĩà¦ĩà¦¨": 3999,
      "Ġour": 4000,
      "tity": 4001,
      "vironment": 4002,
      "ulation": 4003,
      "ĠBombay": 4004,
      "85": 4005,
      "Ġpossible": 4006,
      "à¨ĸà¨²": 4007,
      "74": 4008,
      "airs": 4009,
      "ĠJan": 4010,
      "ender": 4011,
      "Ġliability": 4012,
      "Ġ2018": 4013,
      "ĠPresident": 4014,
      "Ġdjus": 4015,
      "Ġassessee": 4016,
      "owledge": 4017,
      "Ġ;": 4018,
      "à¥ľ": 4019,
      "à¨¸à¨µ": 4020,
      "03": 4021,
      "Ġ\\": 4022,
      "gs": 4023,
      "Ġopport": 4024,
      "Ġage": 4025,
      "à²¦à²°": 4026,
      "ization": 4027,
      "Ġprin": 4028,
      "alance": 4029,
      "Ġproceeding": 4030,
      "elf": 4031,
      "84": 4032,
      "Ġà¨ħà¨°à¨ľ": 4033,
      "à±įà±ģ": 4034,
      "de": 4035,
      "ĠMedical": 4036,
      "Ġple": 4037,
      "Ġà¤Ķ": 4038,
      "mes": 4039,
      "Ġï¿½à¤¿": 4040,
      "earch": 4041,
      "ĠMinistry": 4042,
      "\".": 4043,
      "à¤¾à¤¾": 4044,
      "Ġimplement": 4045,
      "ataka": 4046,
      "Ġtitle": 4047,
      "ticles": 4048,
      "ĠTo": 4049,
      "Ø¯": 4050,
      "ortion": 4051,
      "à¦²à¦¨": 4052,
      "à¤¸à¤¤": 4053,
      "ĠRegulation": 4054,
      "ÃīÃĨ": 4055,
      "Ġà®Ĩ": 4056,
      "à¨ªà¨ı": 4057,
      "àªķàª°": 4058,
      "otor": 4059,
      "jud": 4060,
      "Ġà¨µà¨§": 4061,
      "Ġappellants": 4062,
      "Ġobjection": 4063,
      "Ġinvesti": 4064,
      "Date": 4065,
      "Ġà¨ķà¨¬": 4066,
      "ĠïĥĲ": 4067,
      "Ġà¤ªà¤¹à¤²": 4068,
      "ĠArt": 4069,
      "Ġur": 4070,
      "à©ĭà¨¿": 4071,
      "ĠStates": 4072,
      "Ġà¨¸à¨Ł": 4073,
      "kfu": 4074,
      "à¨¸à¨ķ": 4075,
      "nt": 4076,
      "à§§": 4077,
      "ignature": 4078,
      "Ġà¨ħà¨°à¨¥": 4079,
      "Ġ1962": 4080,
      "09": 4081,
      "ĠAudit": 4082,
      "ê¯ĥ": 4083,
      "ajor": 4084,
      "âĢĺ": 4085,
      "ifications": 4086,
      "Ġinvest": 4087,
      "pro": 4088,
      "à¨°à¨Ĺ": 4089,
      "à°¶": 4090,
      "Ġthereunder": 4091,
      "ê¯ķ": 4092,
      "bitr": 4093,
      "à¦ŁÎº": 4094,
      "anguage": 4095,
      "Ġà¨¦à¨µ": 4096,
      "ĠAppellate": 4097,
      "ruitment": 4098,
      "à§¨": 4099,
      "à¤īà¤¤": 4100,
      "Ġdispute": 4101,
      "Ġdeliver": 4102,
      "Ġà´ħà´ª": 4103,
      "Ġà¤¿à¥ĩ": 4104,
      "Ġà§¨": 4105,
      "men": 4106,
      "Ġà«§à«¯à«": 4107,
      "à´°à´®": 4108,
      "à¤¸à¤²": 4109,
      "AB": 4110,
      ")-": 4111,
      "arnataka": 4112,
      "Ġfall": 4113,
      "à¤¯à¤ª": 4114,
      "Ġà¨°à¨ķà¨®": 4115,
      "liament": 4116,
      "Ġsubmit": 4117,
      "61": 4118,
      "Ġtaking": 4119,
      "à¤²à¤ķà¤°": 4120,
      "à¤¤à¤°à¤¹": 4121,
      "Ġfollows": 4122,
      "ĠïĤĻ": 4123,
      "hether": 4124,
      "Ġworks": 4125,
      "Ġ35": 4126,
      "à¬³": 4127,
      "Ġkept": 4128,
      "Ġexpiry": 4129,
      "ĠEducation": 4130,
      "Ġbound": 4131,
      "Ġposition": 4132,
      "à¨¨à¨¦": 4133,
      "à¤ĩà¤¸à¤ķ": 4134,
      "than": 4135,
      "à¦¤à¦°": 4136,
      "Ġnorm": 4137,
      "Ġà¨ĩà¨¨": 4138,
      "Ġdealer": 4139,
      "à¨²à¨ľ": 4140,
      "avour": 4141,
      "à´°à´£": 4142,
      "à±Ĩà°Ĥ": 4143,
      "draw": 4144,
      "Ġalle": 4145,
      "ached": 4146,
      "à¨Ĭà¨¨à¨²": 4147,
      "ĠDate": 4148,
      "à¦ľà¦¨": 4149,
      "omic": 4150,
      "Ġsafety": 4151,
      "à¬ľ": 4152,
      "Ġhimself": 4153,
      "Ġàª¶àªķ": 4154,
      "à¤ľà¤²": 4155,
      "Ġexecution": 4156,
      "OV": 4157,
      "Ġdeclared": 4158,
      "Ġà°®à°°": 4159,
      "à¯ĭ": 4160,
      "kkjk": 4161,
      "64": 4162,
      "Ġdeposit": 4163,
      "02": 4164,
      "à³Ĭ": 4165,
      "ĠLtd": 4166,
      "Ġ..": 4167,
      "ager": 4168,
      "Ġannual": 4169,
      "ĠHead": 4170,
      "04": 4171,
      "clusion": 4172,
      "ING": 4173,
      "gislative": 4174,
      "ires": 4175,
      "ills": 4176,
      "Ir": 4177,
      "ĠGovernor": 4178,
      "à¦¨à¦ĵ": 4179,
      "Ġtyp": 4180,
      "ĠMember": 4181,
      "Ġimpr": 4182,
      "ple": 4183,
      "ĠGST": 4184,
      "Ġamended": 4185,
      "Ø¨": 4186,
      "Ġprosec": 4187,
      "à¤¸à¤¦": 4188,
      "à¤ªà¤¹à¤²": 4189,
      "Ġoutside": 4190,
      "arr": 4191,
      "Ġfees": 4192,
      "Ġà¬ķà¬°": 4193,
      "ĠMay": 4194,
      "Ġarrange": 4195,
      "ustoms": 4196,
      "à¨ħà¨§": 4197,
      "Ġestablished": 4198,
      "àª¥àªµ": 4199,
      "à°¿.": 4200,
      "Ġletter": 4201,
      "ĠPay": 4202,
      "Ġ#": 4203,
      "Ġà¨¥": 4204,
      "Ġà¦Ĩà¦¦": 4205,
      "à¨°à¨Ń": 4206,
      "hing": 4207,
      "Ġconstituted": 4208,
      "Úº": 4209,
      "Ġtechn": 4210,
      "ize": 4211,
      "ĠInstitution": 4212,
      "Ġuntil": 4213,
      "68": 4214,
      "Ġà¨¤à¨¹": 4215,
      "à¨¬à¨¨": 4216,
      "$ï¿½": 4217,
      "Ġincre": 4218,
      "Ġinj": 4219,
      "elines": 4220,
      "âĢ¦âĢ¦âĢ¦": 4221,
      "ÎĿÐħ": 4222,
      "Lr": 4223,
      "vii": 4224,
      "acher": 4225,
      "Note": 4226,
      "row": 4227,
      "à¤¨à¤²": 4228,
      "Ġà¨ħà¨¹": 4229,
      "âĢĭ": 4230,
      "Ġforward": 4231,
      "à¨ªà¨Ł": 4232,
      "à¬ģ": 4233,
      "ĠPower": 4234,
      "à¨¹à¨®à¨£": 4235,
      "à¨°à¨«": 4236,
      "Ġfacilities": 4237,
      "Ġà¤ħà¤²": 4238,
      "ĠCol": 4239,
      "âĢ¦âĢ¦âĢ¦âĢ¦âĢ¦âĢ¦âĢ¦âĢ¦âĢ¦âĢ¦âĢ¦âĢ¦âĢ¦âĢ¦âĢ¦âĢ¦": 4240,
      "Ġàªħàª¥àªµ": 4241,
      "Ġroad": 4242,
      "SC": 4243,
      "Ġfree": 4244,
      "à´ŀ": 4245,
      "Ġà¤ľà¤²à¤ı": 4246,
      "Ġà¥ĩ": 4247,
      "For": 4248,
      "Ġdefined": 4249,
      "Ġoriginal": 4250,
      "71": 4251,
      "Ġà©ĩ": 4252,
      "à¨¸à¨°à¨«": 4253,
      "Ġà¦¶": 4254,
      "fn": 4255,
      "Ġ49": 4256,
      "Ġenact": 4257,
      "à¤ıà¤Ĺà¤ı": 4258,
      "Ġcommitted": 4259,
      "CE": 4260,
      "ises": 4261,
      "Ġterrit": 4262,
      ":âĢĶ": 4263,
      "Ġamong": 4264,
      "á±Łá±": 4265,
      "itions": 4266,
      "ĠControl": 4267,
      "ĠrFkk": 4268,
      "Ġà¨²à¨µ": 4269,
      "Ġà¦²": 4270,
      "ĠAnd": 4271,
      "Ġlimit": 4272,
      "Ġbenefit": 4273,
      "Ġà¦ıà¦°": 4274,
      "Ġliqu": 4275,
      "à§ģà§ĩ": 4276,
      "ving": 4277,
      "Ġà¨īà¨¸à¨¨": 4278,
      "Ġser": 4279,
      "à¬ķà¬°": 4280,
      "Ġ1955": 4281,
      "Ġà¨¿à©°": 4282,
      "àªµàªµ": 4283,
      "Ġstaff": 4284,
      "Ġreview": 4285,
      "amil": 4286,
      "à¤¤à¤¯": 4287,
      "à¨¨à¨¸": 4288,
      "ĠBh": 4289,
      "à¨¤à¨ķ": 4290,
      "ĠWh": 4291,
      "Ġparagraph": 4292,
      "ane": 4293,
      "ê¯ĳ": 4294,
      "Ġassets": 4295,
      "Ġopportunity": 4296,
      "ĠPre": 4297,
      "Ġcarrying": 4298,
      "Ġfif": 4299,
      "à¨µà¨ľ": 4300,
      "Ġmaintain": 4301,
      "Ïı": 4302,
      "à¨®à¨ļ": 4303,
      "Ġregulation": 4304,
      "Ġchange": 4305,
      "Ġcommon": 4306,
      "Ġ1957": 4307,
      "Ġtrust": 4308,
      "àª«": 4309,
      "Ġhouse": 4310,
      "Ðµ": 4311,
      "Ġsupport": 4312,
      "Ġequipment": 4313,
      "Ġadop": 4314,
      "ĠInstitute": 4315,
      "âĢĶâĢĶâĢĶâĢĶâĢĶâĢĶâĢĶâĢĶ": 4316,
      "UN": 4317,
      "Ġassoci": 4318,
      "eb": 4319,
      "Ġput": 4320,
      "dkj": 4321,
      "Ġpermitted": 4322,
      "àª¯àª®": 4323,
      "jk": 4324,
      "essel": 4325,
      "gre": 4326,
      "lace": 4327,
      "ĠUnder": 4328,
      "ĠMah": 4329,
      "ï¿½à¥Ģ": 4330,
      "Ġdedu": 4331,
      "iff": 4332,
      "ï¿½)": 4333,
      "Ġprivate": 4334,
      "Ġrates": 4335,
      "Ġarticle": 4336,
      "Ġlong": 4337,
      "Ġlands": 4338,
      "Ġprepared": 4339,
      "ailway": 4340,
      "Ġà¨ł": 4341,
      "ĠShri": 4342,
      "atus": 4343,
      "à¤īà¤¦": 4344,
      "ĠBut": 4345,
      "Ġhigher": 4346,
      "à°·à°¨": 4347,
      "Ġtenant": 4348,
      "06": 4349,
      "Ġàª¨àª¥": 4350,
      "Ġà¯Ĩ": 4351,
      "ĠAnn": 4352,
      "change": 4353,
      "Ġà´±": 4354,
      "Ð´": 4355,
      "General": 4356,
      "ĠDes": 4357,
      "Ġtru": 4358,
      "ĠMe": 4359,
      "umn": 4360,
      "à¤¾;": 4361,
      "à¨Łà¨¸": 4362,
      "ling": 4363,
      "Ã¼": 4364,
      "à¤¼à¤¾": 4365,
      "à¨ĳ": 4366,
      "ÂĢ": 4367,
      "ival": 4368,
      "à²¥": 4369,
      "á¾ģ": 4370,
      "oks": 4371,
      "ÛĶ": 4372,
      "Ġ=": 4373,
      "à°Ń": 4374,
      "oods": 4375,
      "Ġà°ĩ": 4376,
      "Ġmach": 4377,
      "Ġà¨Ĩà¨Ī": 4378,
      "[(": 4379,
      "à¨¾à¨Ĥ,": 4380,
      "á¿": 4381,
      "irst": 4382,
      "Ġseparate": 4383,
      "SI": 4384,
      "Ġ45": 4385,
      "ĠParliament": 4386,
      "Ġincluded": 4387,
      "xh": 4388,
      "jected": 4389,
      "à¨ķà¨°à¨¤": 4390,
      "icity": 4391,
      "Ġbre": 4392,
      "ĠIN": 4393,
      "ains": 4394,
      "urities": 4395,
      "ĠScheduled": 4396,
      "ĠÑ": 4397,
      "à¨²à¨¦": 4398,
      "Ġplaced": 4399,
      "Ġà¨īà¨¨à¨¹": 4400,
      "ier": 4401,
      "Ġsug": 4402,
      "ĠïģĻ": 4403,
      "Ġà´°": 4404,
      "Ãĺ": 4405,
      "67": 4406,
      "àµ½à´ķ": 4407,
      "àªłàª³": 4408,
      "62": 4409,
      "ĠNumber": 4410,
      "94": 4411,
      "LFkk": 4412,
      "Ġemployment": 4413,
      "Ġvot": 4414,
      "Ġdischarge": 4415,
      "ousand": 4416,
      "ĠSuperintendent": 4417,
      "Ġà¤ķà¤ķà¤¸": 4418,
      "ĠForest": 4419,
      "Ġlife": 4420,
      "Ġsour": 4421,
      "ï¿½ï¿½ï¿½ï¿½ï¿½ï¿½ï¿½ï¿½ï¿½ï¿½": 4422,
      "Ġ1947": 4423,
      "TH": 4424,
      "missed": 4425,
      "ealth": 4426,
      "ï¿½ï¿½ï¿½ï¿½ï¿½ï¿½ï¿½ï¿½ï¿½": 4427,
      "Ġbuildings": 4428,
      "Ġdeclaration": 4429,
      "Ġimprisonment": 4430,
      "Ġdecided": 4431,
      "à¤Ĩà¤§": 4432,
      "ĠClass": 4433,
      "ê¯¥": 4434,
      "Ġfavour": 4435,
      "ashtra": 4436,
      "àŃĦ": 4437,
      "osp": 4438,
      "Ġrefer": 4439,
      "Ġpurchase": 4440,
      "à°¾à°Ĥ": 4441,
      "Ġtraining": 4442,
      "à¤Łà¤ķ": 4443,
      "Ġàªĸ": 4444,
      "Ġlanguage": 4445,
      "Ġ1948": 4446,
      "Ñķ": 4447,
      "Ġpolicy": 4448,
      "Ġ1973": 4449,
      "Ġ1963": 4450,
      "Ġz": 4451,
      "ĠJanuary": 4452,
      "AiÃĢÃĦ": 4453,
      "Ġmaximum": 4454,
      "Ġexerc": 4455,
      "ually": 4456,
      "ĠCons": 4457,
      "àµį.": 4458,
      "à¨¼à©ģ": 4459,
      "Ġà¤¿ï¿½": 4460,
      "wards": 4461,
      "Ġregular": 4462,
      "à¤¯à¤¯": 4463,
      "à¤īà¤¸à¤ķ": 4464,
      "ĠvU": 4465,
      "Ġsigned": 4466,
      "Ġdi": 4467,
      "ĠTe": 4468,
      "Ġaccess": 4469,
      "Â¨": 4470,
      "Ġstation": 4471,
      "lay": 4472,
      "Ġobject": 4473,
      "Ġcontrav": 4474,
      "ats": 4475,
      "à¨²à¨£": 4476,
      "ners": 4477,
      "ales": 4478,
      "Ġà¨ĩà¨¸à¨¦": 4479,
      "à´°à´ķ": 4480,
      "Ġfirm": 4481,
      "à¯Ĥ": 4482,
      "rie": 4483,
      "Ġsimilar": 4484,
      "ĠïĢ¶": 4485,
      "87": 4486,
      "Ġà¨ħà¨¸à¨²": 4487,
      "Ġtermin": 4488,
      "ĠÂ¸": 4489,
      "ĠBi": 4490,
      "ĠOrd": 4491,
      "à¤īà¤¨": 4492,
      "à¨§à¨°": 4493,
      "Ġdismissed": 4494,
      "Ġfunction": 4495,
      "ĠIm": 4496,
      "ism": 4497,
      "Ġunit": 4498,
      "etails": 4499,
      "Ġà¤ķà¤¹": 4500,
      "à¨¥à¨¤": 4501,
      "Ġprogram": 4502,
      "mount": 4503,
      "Ġprevent": 4504,
      "Ġmunicipal": 4505,
      "ĠHouse": 4506,
      "Ġentered": 4507,
      "81": 4508,
      "Ġ2020": 4509,
      "07": 4510,
      "Ġ1951": 4511,
      "respond": 4512,
      "ards": 4513,
      "tiff": 4514,
      "Ġcovered": 4515,
      "UÃĢ": 4516,
      "Ġacce": 4517,
      "Ġcapacity": 4518,
      "Ġà¨īà¨¸à¨¦": 4519,
      "à¤¿âĢį": 4520,
      "port": 4521,
      "Ġagent": 4522,
      "Ġshares": 4523,
      "à¨¿à©Ģà¨Ĥ": 4524,
      "ttar": 4525,
      "à®µà®°": 4526,
      "63": 4527,
      "ï¿½à¥į": 4528,
      "Ġvis": 4529,
      "Ġà¨µà¨¦": 4530,
      "ĠOfficers": 4531,
      "Ġfire": 4532,
      "idelines": 4533,
      "Ġexpenses": 4534,
      "0000": 4535,
      "à±ģà°Ĥ": 4536,
      "Ġfurnished": 4537,
      "Ä±": 4538,
      "omes": 4539,
      "à¨°à¨§": 4540,
      "Ġà¨°à¨¦": 4541,
      "Ġà¤ħà¤°": 4542,
      "ĠOffice": 4543,
      "Ġek": 4544,
      "Ġà¨µà¨¸": 4545,
      "Ġsenior": 4546,
      "à¨µà¨ħà¨ķà¨¤": 4547,
      "Ġmethod": 4548,
      "asthan": 4549,
      "à¨¬à¨¤": 4550,
      "gha": 4551,
      "Ġdam": 4552,
      "ED": 4553,
      "IM": 4554,
      "Â¥": 4555,
      "ĠReg": 4556,
      "Ġrelated": 4557,
      "Ġconsult": 4558,
      "Ġà¤ľà¤µ": 4559,
      "amm": 4560,
      "Ġà®Ĵ": 4561,
      "ê¯ħ": 4562,
      "Ġà²¤": 4563,
      "Ġà¤¿à¥ĭ": 4564,
      "à©ģà¨¿à©±": 4565,
      "Ġsections": 4566,
      "aging": 4567,
      "Â¢": 4568,
      "à§§à§": 4569,
      "ring": 4570,
      "khu": 4571,
      "Ġproduce": 4572,
      "ĠElectr": 4573,
      "Ġifj": 4574,
      "ĠNotwithstanding": 4575,
      "ĠÛĮ": 4576,
      "à¤£à¤£": 4577,
      "ĠRam": 4578,
      "jh": 4579,
      "á¾ºà®ª": 4580,
      "Ġinquiry": 4581,
      "Ġthousand": 4582,
      "àµĢà´Ĥ": 4583,
      "gree": 4584,
      "LL": 4585,
      "Ġà¤īà¤ªà¤¯": 4586,
      "Ġresponsible": 4587,
      "ï¿½.": 4588,
      "à¥ĩà¥į": 4589,
      "ditional": 4590,
      "83": 4591,
      "Ġback": 4592,
      "Ġtim": 4593,
      "Ġattend": 4594,
      "ÃĻ": 4595,
      "à¤¦à¤¯": 4596,
      "ïĢª": 4597,
      "ense": 4598,
      "Ġsuitable": 4599,
      "Ġà¨®à¨¨": 4600,
      "Ġpublication": 4601,
      "Ġà¤ıà¤µ": 4602,
      "eptember": 4603,
      "ID": 4604,
      "na": 4605,
      "ĠAdd": 4606,
      "vk": 4607,
      "ick": 4608,
      ";;": 4609,
      "Ġtill": 4610,
      "Ġ60": 4611,
      "à¤ħà¤¸": 4612,
      "urred": 4613,
      "ators": 4614,
      "harashtra": 4615,
      "Ġagric": 4616,
      "Ġdepartment": 4617,
      "ĠÎŃà¦¸": 4618,
      "Ġwithdraw": 4619,
      ",,": 4620,
      "Ġ1959": 4621,
      "à«Ģ,": 4622,
      "à¨Ĺà¨²": 4623,
      "gate": 4624,
      "à¦ķà¦°": 4625,
      "Ġlicensee": 4626,
      "Ġtransferred": 4627,
      "Ġcosts": 4628,
      "Ġfof": 4629,
      "Ġdirection": 4630,
      "Ġtrade": 4631,
      "ott": 4632,
      "ê¯ģ": 4633,
      "Ġà¨¹à¨ķ": 4634,
      "à¥Ģï¿½": 4635,
      "ault": 4636,
      "Ġconc": 4637,
      "yk": 4638,
      "à¦®à¦²": 4639,
      "Ġoblig": 4640,
      "Ġair": 4641,
      "Ġforeign": 4642,
      "Ġassist": 4643,
      "Ġïģ©": 4644,
      "à¨µà¨¨": 4645,
      "Ġpetitioner": 4646,
      "à¨Ĳà¨¸": 4647,
      "ulture": 4648,
      "Ġà¨ĩà¨²": 4649,
      "elfare": 4650,
      "Ġrender": 4651,
      "ĠCent": 4652,
      "Ġstand": 4653,
      "Ġallowance": 4654,
      "à¦§ÒĿ": 4655,
      "à«¦": 4656,
      "fj": 4657,
      "Ġ1958": 4658,
      "Ġdirections": 4659,
      "ĠSuch": 4660,
      "Ġportion": 4661,
      "ĠExcise": 4662,
      "oid": 4663,
      "rought": 4664,
      "ĠTrans": 4665,
      "Ins": 4666,
      "Ġitself": 4667,
      "ional": 4668,
      "reed": 4669,
      "Sec": 4670,
      "Ġevent": 4671,
      "ĠJuly": 4672,
      "ĠBench": 4673,
      "ake": 4674,
      "Ġà®ħà®¤": 4675,
      "Ġfield": 4676,
      "Ġspecify": 4677,
      "idential": 4678,
      "Ġrestr": 4679,
      "Ġimposed": 4680,
      "Ġapplied": 4681,
      "Ġfour": 4682,
      "Ġkeep": 4683,
      "Ġcalc": 4684,
      "adi": 4685,
      "Ġà¤ªà¤¤": 4686,
      "Ġpercent": 4687,
      "Ġnext": 4688,
      "Ġà¨Ĺà¨Īà¨Ĩ": 4689,
      "Ġà¤īà¤¦": 4690,
      "ressed": 4691,
      "ĠHkh": 4692,
      "To": 4693,
      "Ġplant": 4694,
      "Ġdou": 4695,
      "Ġà¨¦à¨¸": 4696,
      "à¨Ĩà¨¸": 4697,
      "As": 4698,
      "Ġà¨¸à¨ľ": 4699,
      "Ġappeals": 4700,
      "à¯į.": 4701,
      "à¨²à¨¸": 4702,
      "ĠLic": 4703,
      "ÂªÃĢ": 4704,
      "Ġsay": 4705,
      "Ġmer": 4706,
      "Ġrespondents": 4707,
      "AC": 4708,
      "à¤Ĩà¤µ": 4709,
      "à¤ħà¤Ń": 4710,
      "à¨²à¨¬": 4711,
      "à¤°à¤²": 4712,
      "ĠLegislature": 4713,
      "Ġà¤¸à¤µ": 4714,
      "Ġà²®à²¤": 4715,
      "ĠJune": 4716,
      "ariff": 4717,
      "Âµ": 4718,
      "ober": 4719,
      "apers": 4720,
      "Ġ!": 4721,
      "ĠScheme": 4722,
      "mbly": 4723,
      "ects": 4724,
      "Ġvessel": 4725,
      "á¾¾": 4726,
      "Ġpe": 4727,
      "ĠMem": 4728,
      "ably": 4729,
      "Ġed": 4730,
      "ĠOct": 4731,
      "Ġcategory": 4732,
      "Ġing": 4733,
      "ĠÂ¥": 4734,
      "àµ¼à´ķ": 4735,
      "à¤Ĺà¤®": 4736,
      "ban": 4737,
      "Ġnominated": 4738,
      "Ġgrounds": 4739,
      "ĠACT": 4740,
      "rea": 4741,
      "Ġsumm": 4742,
      "Explanation": 4743,
      "Ġsucc": 4744,
      "ĠSupp": 4745,
      "ĠDecember": 4746,
      "ĠSeptember": 4747,
      "Ġà¨µà¨µ": 4748,
      "Ġfactory": 4749,
      "Ġvillage": 4750,
      "Ġà¬ıà¬¬": 4751,
      "à¥Ń": 4752,
      "ĠïĢ·": 4753,
      "Ġmere": 4754,
      "à¤Ĥ.": 4755,
      "FORM": 4756,
      "Ġgq": 4757,
      "Ġtransport": 4758,
      "tics": 4759,
      "Chancellor": 4760,
      "ames": 4761,
      "Ġhours": 4762,
      "#ï¿½": 4763,
      "Ġcontention": 4764,
      "Ġwaste": 4765,
      "Ġoffer": 4766,
      "Ġ1964": 4767,
      "Ġequal": 4768,
      "Ġchall": 4769,
      "ĠAsse": 4770,
      "Ġï¿½ï¿½ï¿½ï¿½ï¿½ï¿½": 4771,
      "Ġbecome": 4772,
      "Ġà´¹": 4773,
      "eed": 4774,
      "AG": 4775,
      "à¨ħà¨ª": 4776,
      "ÙĪØ±": 4777,
      "Ġà´ľ": 4778,
      "Ġpaper": 4779,
      "Ġfinding": 4780,
      "Ġ1976": 4781,
      "à¦¾à¥¤": 4782,
      "à¤¶à¤¤": 4783,
      "Ġtrue": 4784,
      "Ġ1960": 4785,
      "Ġdele": 4786,
      "yd": 4787,
      "ê¯Ĺ": 4788,
      "à¥Ī;": 4789,
      "Ġcomplete": 4790,
      "Ġintended": 4791,
      "à«¨": 4792,
      "Ġ1952": 4793,
      "à¥¨": 4794,
      "Ġà¨Ĩà¨ª": 4795,
      "acy": 4796,
      "ĠKarnataka": 4797,
      "Ùī": 4798,
      "à¤¸à¤¸": 4799,
      "Ġthereto": 4800,
      "ê¯Ķ": 4801,
      "à©Ĥà©Ĥà©°": 4802,
      "Ġà¦ıÎľà¦Ł": 4803,
      "Ä¸": 4804,
      "Ġonce": 4805,
      "Ġabsence": 4806,
      "Ġadequ": 4807,
      "ecting": 4808,
      "De": 4809,
      "Ġutil": 4810,
      "Ġà¨¬à¨ļ": 4811,
      "work": 4812,
      "Ġhearing": 4813,
      "Ġà¨®à¨µ": 4814,
      "à´Ļà´³": 4815,
      "Subs": 4816,
      "à¨¤à¨°à¨¦": 4817,
      "á¾·à®¤": 4818,
      "à©Ģ-": 4819,
      "ĠÅ": 4820,
      "Ġplaintiff": 4821,
      "ather": 4822,
      "roller": 4823,
      "agar": 4824,
      "Ġroom": 4825,
      "à¨²à¨¨": 4826,
      "Ġàª«": 4827,
      "ĠCertificate": 4828,
      "âĢĿ,": 4829,
      "á¾Į": 4830,
      "Ġdata": 4831,
      "à¨¢": 4832,
      "ĠSur": 4833,
      "ï¿½à¥ĩ": 4834,
      "round": 4835,
      "gric": 4836,
      "Ġ37": 4837,
      "à¤Ĩà¤µà¤¶": 4838,
      "Ġlikely": 4839,
      "ĠRegister": 4840,
      "Ġreal": 4841,
      "à¨ĸà¨¦": 4842,
      "Ġrequest": 4843,
      "AY": 4844,
      "Ġdefend": 4845,
      "ĠNew": 4846,
      "Ġinform": 4847,
      "Ġstre": 4848,
      "Central": 4849,
      "Ġsm": 4850,
      "abad": 4851,
      "Ġà¬ıà¬¹": 4852,
      "Ġà´Ī": 4853,
      "Ġestablish": 4854,
      "Ġthough": 4855,
      "Ġgroup": 4856,
      "Ġlay": 4857,
      "à°²à°¨": 4858,
      "98": 4859,
      "95": 4860,
      "à¨ĺà¨£": 4861,
      "Ġpursu": 4862,
      "Ġà´ħà´µ": 4863,
      "Ġpermanent": 4864,
      "à¨¼à©Ĥ": 4865,
      "Ġà¨ĸà¨°": 4866,
      "Ġlk": 4867,
      "Ġmy": 4868,
      "ersion": 4869,
      "à¬Ń": 4870,
      "à±ģ.": 4871,
      "'.": 4872,
      "Ġdirected": 4873,
      "à¤¾-": 4874,
      "Ġà¤¦à¤ķà¤¯": 4875,
      "Ġsite": 4876,
      "Ġbro": 4877,
      "wh": 4878,
      "à¥§": 4879,
      "encies": 4880,
      "ÃĬ": 4881,
      "Ġsti": 4882,
      "Ġgo": 4883,
      "riage": 4884,
      "Ġà´ħà´¨": 4885,
      "alth": 4886,
      "porary": 4887,
      "ordinary": 4888,
      "Ġcash": 4889,
      "à¤ļà¤ķ": 4890,
      "HI": 4891,
      "Ġtreated": 4892,
      "atural": 4893,
      "uch": 4894,
      "à¨ļà¨¤": 4895,
      "Ġà¨ľà¨¨à¨¤": 4896,
      "Ġappro": 4897,
      "Ġdev": 4898,
      "edic": 4899,
      "acter": 4900,
      "ought": 4901,
      "à¥Ģ-": 4902,
      "Ġaccepted": 4903,
      "à¦¬à¦¦à¦¨": 4904,
      "Ġpoll": 4905,
      "à¤īà¤¨à¤ķ": 4906,
      "Ġperformance": 4907,
      "Ġexist": 4908,
      "Ġbrought": 4909,
      "à¤ľà¤¬": 4910,
      "à¨¯à¨¨": 4911,
      "à¤¯à¤ķà¤¤": 4912,
      "Ġpending": 4913,
      "Ġmaterials": 4914,
      "Ġàªīàªª": 4915,
      "Ġtks": 4916,
      "amination": 4917,
      "Ġarbitr": 4918,
      "Ġà¨®à¨ķ": 4919,
      "Ġalter": 4920,
      "Ġ1954": 4921,
      "Ġproduction": 4922,
      "Ïķ": 4923,
      "ĠOctober": 4924,
      "ĠÄºà¦¯": 4925,
      "hes": 4926,
      "ĠCriminal": 4927,
      "Ġrevision": 4928,
      "Sh": 4929,
      "ĠàŃĭ": 4930,
      "Ġà®µà®´": 4931,
      "ĠïģĿ": 4932,
      "Other": 4933,
      "Ġtoget": 4934,
      "à¨ļà¨ķ": 4935,
      "Ġà¤Ĩà¤Ī": 4936,
      "Ġugha": 4937,
      "Ind": 4938,
      "):": 4939,
      "Ġà¬¤": 4940,
      "à¦¦à¦¶": 4941,
      "Min": 4942,
      "à¤®à¤ļ": 4943,
      "Ġtogether": 4944,
      "à¦¯Îº": 4945,
      "Ġmajor": 4946,
      "Ġà¤²à¤Ĺ": 4947,
      "alid": 4948,
      "ĠChairperson": 4949,
      "Ġpromot": 4950,
      "Ġà¨Łà¨°": 4951,
      "Ġconstitution": 4952,
      "ordinate": 4953,
      "PÃĢ": 4954,
      "à¤²à¤¸": 4955,
      "arant": 4956,
      "Ġworkers": 4957,
      "ivalent": 4958,
      "Ġrenew": 4959,
      "cational": 4960,
      "iving": 4961,
      "à¨¿à¨¾à¨Ĥ": 4962,
      "All": 4963,
      "Ġ2023": 4964,
      "Ġconsist": 4965,
      "ocal": 4966,
      "ugust": 4967,
      "HED": 4968,
      "Ġà¨¨à¨ľ": 4969,
      "Ġprejud": 4970,
      "king": 4971,
      "Ġconfirm": 4972,
      "Ġà¤¦à¤ķà¤¸": 4973,
      "LA": 4974,
      ".(": 4975,
      "Ġknowledge": 4976,
      "Ġprosecution": 4977,
      "ĠAt": 4978,
      "eased": 4979,
      "mber": 4980,
      "à²°à²°": 4981,
      "Ġec": 4982,
      "Ġlf": 4983,
      "undred": 4984,
      "Ġcust": 4985,
      "àª²àª¤": 4986,
      "Ġà¨ĵ": 4987,
      "'ï¿½": 4988,
      "CO": 4989,
      "à¥Ģ)": 4990,
      "Ġdisposal": 4991,
      "Ġprovides": 4992,
      "xkA": 4993,
      "Ġbalance": 4994,
      "Ġentire": 4995,
      "kdkjh": 4996,
      "91": 4997,
      "à¤¤à¤¸": 4998,
      "à¤¥à¤¥": 4999,
      "à¤°à¤¬": 5000,
      "Ġà¨¦à¨ķ": 5001,
      "vention": 5002,
      "à«§": 5003,
      "Ġà¤¸à¤®à¤Ŀ": 5004,
      "Ġpunish": 5005,
      "viii": 5006,
      "Ġprohib": 5007,
      "ortg": 5008,
      "Ġà°ľ": 5009,
      "à´°à´µ": 5010,
      "à¤ľà¤®": 5011,
      "Ġexcess": 5012,
      "Ġà¤ĩà¤¨": 5013,
      "à§©": 5014,
      "à¨µà¨¤": 5015,
      "Ġà¨ªà¨¤": 5016,
      "à¦§à¦ķ": 5017,
      "à¨ĸà¨¤": 5018,
      "Ġ2021": 5019,
      "Ġà¤īà¤ªà¤¬": 5020,
      "amed": 5021,
      "à¥ģà¤¿": 5022,
      "echan": 5023,
      "Ġviol": 5024,
      "aryana": 5025,
      "à¤¯à¤µà¤¸": 5026,
      "Ġcommission": 5027,
      "Ġrank": 5028,
      "97": 5029,
      "à¤¹à¤¨": 5030,
      "Ġnet": 5031,
      "sa": 5032,
      "Ġfig": 5033,
      "enty": 5034,
      "Ġnor": 5035,
      "96": 5036,
      "Ġà¨Ī": 5037,
      "exure": 5038,
      "ksx": 5039,
      "fi": 5040,
      "Ġcomply": 5041,
      "à¨¸à¨Łà¨°": 5042,
      "ĠEngl": 5043,
      "inafter": 5044,
      "à°¹": 5045,
      "à¯ģ.": 5046,
      "Ġemp": 5047,
      "Ġ1986": 5048,
      "ĠÐµ": 5049,
      "Ø¹": 5050,
      "ĠØ§Ø³": 5051,
      "Ġelectronic": 5052,
      "kl": 5053,
      "vision": 5054,
      "Ġconnected": 5055,
      "FIC": 5056,
      "Ġcontinue": 5057,
      "Ġhealth": 5058,
      "Ġà¨ķà¨°à¨®à¨ļ": 5059,
      "ĠïĢ¨": 5060,
      "Ġvol": 5061,
      "Ġ1974": 5062,
      "Ġstage": 5063,
      "Ġrecruitment": 5064,
      "ERS": 5065,
      "à¦¬à¦¤": 5066,
      "kjr": 5067,
      "If": 5068,
      "Ġãº": 5069,
      "Ġargu": 5070,
      "Ġà¦Ĩà¦®": 5071,
      "Ġinput": 5072,
      "Ġlimits": 5073,
      "à¨ªà¨¸": 5074,
      "Ġàªıàªķ": 5075,
      "cted": 5076,
      "à¥Ĥà¤¿": 5077,
      "àª¯àª¦": 5078,
      "][": 5079,
      "93": 5080,
      "à¤¾à¤¿à¤¾": 5081,
      "à«§à«": 5082,
      "ĠUttar": 5083,
      "Ġà¨Ĩà¨«": 5084,
      "umb": 5085,
      "Ġfunds": 5086,
      "Ġund": 5087,
      "ovable": 5088,
      "ĠPrincipal": 5089,
      "à¨¼à©ĭ": 5090,
      "ma": 5091,
      "Ġà¤®à¤§": 5092,
      "ĠStatut": 5093,
      "à¤¬à¤¤": 5094,
      "Ġcounsel": 5095,
      "Ġget": 5096,
      "Ġà§©": 5097,
      "SS": 5098,
      "Govern": 5099,
      "ĠFOR": 5100,
      "ïģļïģ": 5101,
      "Ġsell": 5102,
      "à¦ģ": 5103,
      "Ġamendment": 5104,
      "rd": 5105,
      "Ġresolution": 5106,
      "Ġhigh": 5107,
      "roup": 5108,
      "Ġà¨ķà¨°à¨ķ": 5109,
      "Ġstock": 5110,
      "Ġàªħàª¦": 5111,
      "tices": 5112,
      "Ġestim": 5113,
      "ÑŃ": 5114,
      "Ġà¦Ĺ": 5115,
      "ĠCustoms": 5116,
      "Ġà°Ī": 5117,
      "Ġexperience": 5118,
      "à¤ķà¤¦à¤®": 5119,
      "Ġthirty": 5120,
      "àŃ±": 5121,
      "Ġmakes": 5122,
      "!ï¿½ï¿½": 5123,
      "\"ï¿½": 5124,
      "ĠHowever": 5125,
      "Ġà¨ħà¨²": 5126,
      "à¨µà¨ķ": 5127,
      "Ġ38": 5128,
      "ĠAugust": 5129,
      "AK": 5130,
      "à¤µà¤¯": 5131,
      "ticip": 5132,
      "!ï¿½": 5133,
      "den": 5134,
      "ĠDr": 5135,
      "Ġ1949": 5136,
      "à¤·à¤¤": 5137,
      "Ġraised": 5138,
      "à¤¦à¤²": 5139,
      "Ġyou": 5140,
      "full": 5141,
      "itive": 5142,
      "Ġcolumn": 5143,
      "Ġentity": 5144,
      "Ġdelivered": 5145,
      "mine": 5146,
      "Ġà°İ": 5147,
      "92": 5148,
      "ousing": 5149,
      "ĠMaharashtra": 5150,
      "fu": 5151,
      "Ġà¤Ĩà¤µà¤¶": 5152,
      "NO": 5153,
      "ging": 5154,
      "Ġà²ĩ": 5155,
      "stitu": 5156,
      "ĠCourts": 5157,
      "à¤ľà¤¸à¤ķ": 5158,
      "ĠZone": 5159,
      "Ġcorrespond": 5160,
      "ÄĤ": 5161,
      "ocate": 5162,
      "à¤¿à¥į": 5163,
      "Ġteacher": 5164,
      "ĠThey": 5165,
      "ĠStandard": 5166,
      "Ġschool": 5167,
      "Ġaccordingly": 5168,
      "ĠIndustrial": 5169,
      "Ġà¨¸à¨¦": 5170,
      "ĠRegistration": 5171,
      "endent": 5172,
      "Ġenquiry": 5173,
      "Ġindustrial": 5174,
      "ĠNove": 5175,
      "ĠProf": 5176,
      "à¥ĭâĢį": 5177,
      "yond": 5178,
      "Ã¢": 5179,
      "Ġheard": 5180,
      "Ġarticles": 5181,
      "Ġupto": 5182,
      "Ġcancell": 5183,
      "à©Īà©±": 5184,
      "arks": 5185,
      "abilities": 5186,
      "Ġscale": 5187,
      "Ġà¦ĸ": 5188,
      "Ġdeb": 5189,
      "à¤¸à¤µ": 5190,
      "gulation": 5191,
      "Ġà¨Ĺà¨²à¨¤": 5192,
      "Ġà²¬": 5193,
      "RI": 5194,
      "ĠInter": 5195,
      "Ġ44": 5196,
      "Ġtreat": 5197,
      "Ġbor": 5198,
      "BI": 5199,
      "à¬ĸ": 5200,
      "à°¾à°¾": 5201,
      "Ġsold": 5202,
      "wo": 5203,
      "Ġauthorized": 5204,
      "Ġholder": 5205,
      "ĠPh": 5206,
      "oma": 5207,
      "VI": 5208,
      "Ġà´¯": 5209,
      "artments": 5210,
      ".âĢĿ": 5211,
      "ĠïĤĥ": 5212,
      "à´ħ": 5213,
      "à®ķà®ª": 5214,
      "Ġmeasures": 5215,
      "ĠRajasthan": 5216,
      "Ġ1966": 5217,
      "clusive": 5218,
      "Ġappears": 5219,
      "ĠTer": 5220,
      "à¥ĩà¤Ĥà¥¤": 5221,
      "Ġobserved": 5222,
      "Ġsitu": 5223,
      "Ġns": 5224,
      "á¾ŀ": 5225,
      "Ġhundred": 5226,
      "ara": 5227,
      "Ġeffective": 5228,
      "Ġdeceased": 5229,
      "Ġinstall": 5230,
      "Ġequivalent": 5231,
      "Ġà¦«": 5232,
      "ĠTotal": 5233,
      "à¤²à¤®": 5234,
      "Ġsince": 5235,
      "ĠMr": 5236,
      "Ġprob": 5237,
      "ĠFeb": 5238,
      "Ġïģ¹": 5239,
      "traordinary": 5240,
      "à¤§à¤¸": 5241,
      "Ġcopies": 5242,
      "ê¯ĩ": 5243,
      "inancial": 5244,
      "ĠÂ©": 5245,
      "Ġanal": 5246,
      "Ġpersonal": 5247,
      "Ġrecovery": 5248,
      "ĠNovember": 5249,
      "ĠAfter": 5250,
      "olid": 5251,
      "Ġà²ī": 5252,
      "%ï¿½": 5253,
      "ê¯Ĵ": 5254,
      "urer": 5255,
      "à¦ıà¦°": 5256,
      "Ġthereon": 5257,
      "ĠTrust": 5258,
      "Ġ41": 5259,
      "ulty": 5260,
      "Ġfollowed": 5261,
      "Ġchan": 5262,
      "à¦Ĩ": 5263,
      "atch": 5264,
      "Ġprofession": 5265,
      "resh": 5266,
      "].": 5267,
      "à¨£à¨¦": 5268,
      "apital": 5269,
      "Ġàªħàª°": 5270,
      "qf": 5271,
      "à¨£à¨¤": 5272,
      "Ġà¬ħà¬¨": 5273,
      "oice": 5274,
      "Ġãº¸": 5275,
      "Ġfails": 5276,
      "-ï¿½": 5277,
      "hra": 5278,
      "Ġcountry": 5279,
      "''": 5280,
      "ruary": 5281,
      "Ġport": 5282,
      "yh": 5283,
      "This": 5284,
      "aching": 5285,
      ")/": 5286,
      "Ġpreced": 5287,
      "Ñ¸": 5288,
      "ying": 5289,
      "Ġà¨¤à¨°à¨¹": 5290,
      "#ï¿½ï¿½": 5291,
      "Ġlaws": 5292,
      "Ġap": 5293,
      "àªĽ": 5294,
      "ĠDE": 5295,
      "Ġ2013": 5296,
      "à¤ķà¤ı": 5297,
      "Ùģ": 5298,
      "à¤£à¤ķ": 5299,
      "Ø¬": 5300,
      "Ġbooks": 5301,
      "ĠSystem": 5302,
      "Ġadmission": 5303,
      "ĠRoad": 5304,
      "à©ĩà¨¿": 5305,
      "Ġadvance": 5306,
      "àª¶àª¨": 5307,
      "Ġcivil": 5308,
      "Ġdelay": 5309,
      "ĠïĢ©": 5310,
      "ilit": 5311,
      "HAR": 5312,
      "Ġcompleted": 5313,
      "Ġ75": 5314,
      "Ġà¤¯à¤¥": 5315,
      "2017": 5316,
      "fully": 5317,
      "ĠNadu": 5318,
      "à®Łà®¤": 5319,
      "Ġassigned": 5320,
      "à¦ī": 5321,
      "à°¬à°¡": 5322,
      "line": 5323,
      "Ġà°¬": 5324,
      "VÂª": 5325,
      "view": 5326,
      "Ġà¨¿à©Īà¥¤": 5327,
      "Ġapplications": 5328,
      "à´¿.": 5329,
      "Â¿": 5330,
      "ĠVe": 5331,
      "Ġenfor": 5332,
      "à¨°à¨Ĩ": 5333,
      "Ġstudents": 5334,
      "Ġboard": 5335,
      "iring": 5336,
      "Ġincurred": 5337,
      "á¿Ģ": 5338,
      "ĠAgric": 5339,
      "à§ª": 5340,
      "anks": 5341,
      "à¦ł": 5342,
      "ĠÎŃà¦¥": 5343,
      "à¤°à¤ªà¤°": 5344,
      "Ġrese": 5345,
      "Ġà¨°à¨Ĺà¨Ĩ": 5346,
      "Ġinstitutions": 5347,
      "\",": 5348,
      "Ġà«¨": 5349,
      "Ñ·": 5350,
      "Ġcare": 5351,
      "ïģ»": 5352,
      "Ġà¯ĩ": 5353,
      "Ġbeyond": 5354,
      "Çĺ": 5355,
      "Ġà¨Ĺà¨µ": 5356,
      "à¤ķà¤°à¤¦": 5357,
      "Ġproperties": 5358,
      "ĠàªŁ": 5359,
      "Ġcharged": 5360,
      "Ġà¦¸Ñķ": 5361,
      "Ġà¨Ńà¨°": 5362,
      "Ġdiffic": 5363,
      "Ġmortg": 5364,
      "Ġconsent": 5365,
      "Ġà¤ķà¤ķà¤¯": 5366,
      "Ġdebt": 5367,
      "Ġlakh": 5368,
      "Ġà®®à®±": 5369,
      "ĠFORM": 5370,
      "egr": 5371,
      "Ù¾": 5372,
      "Ġinstructions": 5373,
      "ĠPlanning": 5374,
      "àª²àªķàª°": 5375,
      "Ġà¨¨à¨ķ": 5376,
      "Ġ1965": 5377,
      "ĠBy": 5378,
      "Ġ43": 5379,
      "ĠEnd": 5380,
      "ĠàªĨàªªàªµ": 5381,
      "ÂªÃīÃī": 5382,
      "Ġbelonging": 5383,
      "à´Ļàµ¾": 5384,
      "================": 5385,
      "Ġà¤ħà¤¥à¤µ": 5386,
      "Power": 5387,
      "Ġ>": 5388,
      "erse": 5389,
      "Ġshown": 5390,
      "urs": 5391,
      "Ġ48": 5392,
      "à¤¡à¤ķ": 5393,
      "à¤ªà¤Ł": 5394,
      "à¨²à¨®": 5395,
      "Ġclearly": 5396,
      "Ġà´Ł": 5397,
      "Â§": 5398,
      "Ġactual": 5399,
      "Ĥ¹": 5400,
      "ĠTable": 5401,
      "rodu": 5402,
      "ĠgSA": 5403,
      "à¨«à¨°": 5404,
      "Ġcontaining": 5405,
      "ancies": 5406,
      "ealed": 5407,
      "Ġsession": 5408,
      "Ġsl": 5409,
      "ÃīÃĥ": 5410,
      "ĠThat": 5411,
      "àªĨ": 5412,
      "Ġïģĸ": 5413,
      "Ã§": 5414,
      "gk": 5415,
      "Ġinvestigation": 5416,
      "Ġdirectly": 5417,
      "Ġretire": 5418,
      "omen": 5419,
      "Ġshort": 5420,
      "orage": 5421,
      "à²µà²°": 5422,
      "à´°à´¤": 5423,
      "abor": 5424,
      "à¤°à¤ľ": 5425,
      "à§«": 5426,
      "ras": 5427,
      "Ġà²¦": 5428,
      "Ġcame": 5429,
      "Ġ42": 5430,
      "OL": 5431,
      "oints": 5432,
      "à¨¾à¨¾à¨Ĥ": 5433,
      "reme": 5434,
      "Ġdetermine": 5435,
      "Ġà¤ĩà¤¸à¤²": 5436,
      "Ġremoval": 5437,
      "Ġentries": 5438,
      "Ġdri": 5439,
      "ĠJudgment": 5440,
      "à¤¶à¤°": 5441,
      "500": 5442,
      "Â»": 5443,
      "Ġbook": 5444,
      "Ġ?": 5445,
      "ĠPen": 5446,
      "Ġline": 5447,
      "ĠSE": 5448,
      "Ġà¤ĵà¤°": 5449,
      "Ġcustody": 5450,
      "ĠÎŃà¦¦à¦ĵà§Ł": 5451,
      "IST": 5452,
      "à¤®à¤§": 5453,
      "char": 5454,
      "odies": 5455,
      "ØĮ": 5456,
      "ĠHealth": 5457,
      "ailed": 5458,
      "Form": 5459,
      "ĠReport": 5460,
      "ya": 5461,
      "Ġà¤ªà¤ķ": 5462,
      "ĠFebruary": 5463,
      "à§Łà¦°": 5464,
      "à¤ŀ": 5465,
      "Ġsubstan": 5466,
      "Rr": 5467,
      "Ġconclusion": 5468,
      "Vh": 5469,
      "ĠEmploy": 5470,
      "Ġvery": 5471,
      "isted": 5472,
      "Ġà¥Ģ": 5473,
      "ĠïģĪ": 5474,
      "à¤¯à¤¥": 5475,
      "ĠGov": 5476,
      "time": 5477,
      "Ġ2022": 5478,
      "Ġ54": 5479,
      "iqu": 5480,
      "Ġclos": 5481,
      "à¦²à¦¤": 5482,
      "Ġadmitted": 5483,
      "Ġà´ªà´°": 5484,
      "hort": 5485,
      "Ġ1972": 5486,
      "ïĢ¬": 5487,
      "Ġthus": 5488,
      "Ã£": 5489,
      "Ġexpl": 5490,
      "à¤ıà¤ľ": 5491,
      "Ġ1953": 5492,
      "sement": 5493,
      "ope": 5494,
      "à¤¤à¤Ĺ": 5495,
      "mental": 5496,
      "ook": 5497,
      "à¤īà¤²": 5498,
      "ĠGoods": 5499,
      "Ġexpress": 5500,
      "ĠØ§ÙĪØ±": 5501,
      "Ġà¨°à¨Ī": 5502,
      "Ġà¤ħà¤ľ": 5503,
      "à¤¤à¤ª": 5504,
      "Ġà¨ľà¨¨": 5505,
      "Ġwages": 5506,
      "à¨¦à¨¦": 5507,
      "arter": 5508,
      "EÃ²": 5509,
      "Ġdiscipl": 5510,
      "sw": 5511,
      "à¨£à¨µ": 5512,
      "à²ķà²°": 5513,
      "Ġdiscre": 5514,
      "tees": 5515,
      "Ġcomplaint": 5516,
      "including": 5517,
      "/;": 5518,
      "ĠFirst": 5519,
      "Ġwarr": 5520,
      "ĠGOV": 5521,
      "Ġproducts": 5522,
      "Ġsever": 5523,
      "Ġ01": 5524,
      "Â«": 5525,
      "à¤ħà¤°": 5526,
      "uman": 5527,
      "Ġà´Ń": 5528,
      "à¤·à¤®": 5529,
      "ger": 5530,
      "kksa": 5531,
      "Mh": 5532,
      "Ġà¤ľà¤®": 5533,
      "uh": 5534,
      "Ġcharacter": 5535,
      "Ġ2024": 5536,
      "Ġsuccess": 5537,
      "Ġizk": 5538,
      "Ġintim": 5539,
      "à¨£à¨Ĺ": 5540,
      "Ġplaces": 5541,
      "ĠCompanies": 5542,
      "Ġsoon": 5543,
      "à¥įà¤¾": 5544,
      "ps": 5545,
      "rq": 5546,
      "Ġfile": 5547,
      "á¾ł": 5548,
      "Ġcompliance": 5549,
      "ways": 5550,
      "àª¯àªķ": 5551,
      "à²Ń": 5552,
      "Ġkind": 5553,
      "ĠEnglish": 5554,
      "Le": 5555,
      "Ġsafe": 5556,
      "Pr": 5557,
      "$ï¿½ï¿½": 5558,
      "')": 5559,
      "à¤¤à¤¥": 5560,
      "Ġà°¯": 5561,
      "Ġà¨īà¨ªà¨¬": 5562,
      "Ġïģļïģºïģ§": 5563,
      "Ġden": 5564,
      "atter": 5565,
      "àª°àª®": 5566,
      "Ġvalidity": 5567,
      "à¤¸à¤°à¤ķ": 5568,
      "Ġ80": 5569,
      "ignation": 5570,
      "ĠPerson": 5571,
      "Ġà¨ħà¨¥": 5572,
      "ĠTO": 5573,
      "à¨Ĳà¨ķà¨Ł": 5574,
      "Ġterritory": 5575,
      "à¨ľà¨¦": 5576,
      "à¤¿à¥ģ": 5577,
      "à§¬": 5578,
      "Ġadequate": 5579,
      "ene": 5580,
      "Ġà¤®à¤ķ": 5581,
      "à²µà²¨": 5582,
      "Ġagency": 5583,
      "Ġris": 5584,
      "iary": 5585,
      "à¬Ľ": 5586,
      "ĠBihar": 5587,
      "Ġimplementation": 5588,
      "Ġà¨µà¨Ĺà¨Ĩ": 5589,
      "à¤ľà¤ª": 5590,
      "ĠAdditional": 5591,
      "Ġanim": 5592,
      "Ġsentence": 5593,
      "Ġeducation": 5594,
      "Ġà¤ªà¤¯": 5595,
      "Ġiniti": 5596,
      "ĠjkT": 5597,
      "à¬«": 5598,
      "Ġ1994": 5599,
      "Ġcompletion": 5600,
      "ĠHaryana": 5601,
      "Ġpunishable": 5602,
      "ĠEst": 5603,
      "Ġintegr": 5604,
      "Ġerr": 5605,
      "à¨²à¨°": 5606,
      "Ġpack": 5607,
      "à¤µà¤°à¤£": 5608,
      "Ar": 5609,
      "à¦°à¦¤": 5610,
      "à¬¡": 5611,
      "Ġï¿½à¤¾à¤¿": 5612,
      "ĠdksbZ": 5613,
      "à²¸à²²": 5614,
      "à¥Īà¤Ĥ,": 5615,
      "struction": 5616,
      "Ġplot": 5617,
      "à§±": 5618,
      "Ġ90": 5619,
      "à¨¯à¨¤": 5620,
      "Ġattached": 5621,
      "Signature": 5622,
      "Ġserved": 5623,
      "ĠAuthor": 5624,
      "xÃī": 5625,
      "Ġcontext": 5626,
      "ÃīÃĴ": 5627,
      "Ġ1971": 5628,
      "à¦®à¦¤": 5629,
      "Ġà¤£": 5630,
      "Ġbill": 5631,
      "à¬ĩà¬¥": 5632,
      "à¥ģà¤Ĥ": 5633,
      "Ġïģ´": 5634,
      "à¨¨à¨°à¨¦": 5635,
      "á¾°à®ķ": 5636,
      "à¤ªà¤¦": 5637,
      "à±ģà±ģ": 5638,
      "ĠÄºà¦ķ": 5639,
      "à¤ıà¤®": 5640,
      "LE": 5641,
      "ĠGram": 5642,
      "à¨Łà¨¨": 5643,
      "Ġà¨µà¨ª": 5644,
      "uity": 5645,
      "Ġsubmission": 5646,
      "ches": 5647,
      "cie": 5648,
      "Ġdistribution": 5649,
      "Ġrun": 5650,
      "Government": 5651,
      "Ġlater": 5652,
      "___": 5653,
      "à«©": 5654,
      "hever": 5655,
      "Ġjus": 5656,
      "à©įà©Ģ": 5657,
      "Ġthereafter": 5658,
      "ik": 5659,
      "clause": 5660,
      "Ġjoint": 5661,
      "lim": 5662,
      "ĠLim": 5663,
      "Ġ47": 5664,
      "AND": 5665,
      "Ġà¤µà¤·": 5666,
      "Ġ55": 5667,
      "Ġprop": 5668,
      "ITY": 5669,
      "Ġreceive": 5670,
      "à³ĭ": 5671,
      "Ġoperations": 5672,
      "Ġlight": 5673,
      "Ġminor": 5674,
      "......": 5675,
      "Ġitems": 5676,
      "Ġoffences": 5677,
      "ĠArea": 5678,
      "Ġmarks": 5679,
      "à¤ľà¤ķ": 5680,
      "à¤¤à¤¨à¤¹": 5681,
      "Ġtowards": 5682,
      "à¥Ĥï¿½": 5683,
      "ĠLabour": 5684,
      "dj": 5685,
      "anger": 5686,
      "Ġproviding": 5687,
      "ume": 5688,
      "à¤£à¤¤": 5689,
      "teen": 5690,
      "Ġïģ¨": 5691,
      "yl": 5692,
      "Ġobtain": 5693,
      "Ġ@": 5694,
      "Ġcr": 5695,
      "ocation": 5696,
      "ĠSubject": 5697,
      "ala": 5698,
      "Ġprotection": 5699,
      "idav": 5700,
      "Ġdefault": 5701,
      "à«ĭ.": 5702,
      "Ġà¨ľà¨¨à¨¤à¨ķ": 5703,
      "à´¯à´¯": 5704,
      "Ġdrawn": 5705,
      "Ġstandards": 5706,
      "Ġnote": 5707,
      "àª¯àªµ": 5708,
      "Ġà°ªà°°": 5709,
      ")à¥¤": 5710,
      "ï¿½:": 5711,
      "Ġizfr": 5712,
      "à¦¥Îº": 5713,
      "ĠMinister": 5714,
      "ĠBe": 5715,
      "Ġselection": 5716,
      "Ġfood": 5717,
      "Ġdefin": 5718,
      "Ġguidelines": 5719,
      "Ġà¨īà¨ķà¨¤": 5720,
      "à©ĩÂ©": 5721,
      "&&&&": 5722,
      "Ġclaimed": 5723,
      "à¨Ĩà¨Ī": 5724,
      "Ã¹": 5725,
      "à¤Ĩà¤Ī": 5726,
      "ê¯¨": 5727,
      "ĠCentre": 5728,
      "à¨ķà¨µ": 5729,
      "Ġrecognised": 5730,
      "Ġ1975": 5731,
      "Ġcount": 5732,
      "ift": 5733,
      "leges": 5734,
      "ĠTransport": 5735,
      "Rec": 5736,
      "cieties": 5737,
      "à¨¡à¨°": 5738,
      "Ġlj": 5739,
      "à¤®à¤¸": 5740,
      "ĠExp": 5741,
      "Ġallowances": 5742,
      "Ġcommit": 5743,
      "à¨Ĩà¨ľ": 5744,
      "Tr": 5745,
      "Ġdetention": 5746,
      "Ġ--": 5747,
      "Ġpapers": 5748,
      "ially": 5749,
      "Ġcriminal": 5750,
      "Ġintern": 5751,
      "Ġwhic": 5752,
      "ĠÛĴÚ©": 5753,
      "àŃĩà¬¾": 5754,
      "Ġ52": 5755,
      "Ġrelief": 5756,
      "mod": 5757,
      "ĠTechnology": 5758,
      "Ġ74": 5759,
      "Ġarising": 5760,
      "Ġà¨°à¨¸": 5761,
      "á¾¸": 5762,
      "ciples": 5763,
      "Ã¶": 5764,
      "ample": 5765,
      "Ġfilled": 5766,
      "udget": 5767,
      "Ġ46": 5768,
      "à°¦à°¨": 5769,
      "Î¿": 5770,
      "à¤¬à¤¹": 5771,
      "Ġquan": 5772,
      "Ġlie": 5773,
      "ĠPetition": 5774,
      "arm": 5775,
      "ĠPri": 5776,
      "vest": 5777,
      "Ġà¨°à¨ľ": 5778,
      "ĠAssembly": 5779,
      "à²ĸ": 5780,
      "Ġï¿½à¤¾ï¿½": 5781,
      "Ġundertaking": 5782,
      "Ġaside": 5783,
      "Ġà´¨àµ½à´ķ": 5784,
      "à¨§à¨¨": 5785,
      "ĠNO": 5786,
      "Ġunits": 5787,
      "Ġà°ħà°¨": 5788,
      "TT": 5789,
      "ĠBuilding": 5790,
      "ÂĻ": 5791,
      "ĠÊ": 5792,
      "Ġà¦Ĩà¦°": 5793,
      "Des": 5794,
      "ĠXX": 5795,
      "Ġà¤ħà¤Ĺ": 5796,
      "Ġtemporary": 5797,
      "kg": 5798,
      "Ġrequirement": 5799,
      "Ġà¨²à¨ķ": 5800,
      "(ï¿½ï¿½": 5801,
      "dk": 5802,
      "ĠÂº": 5803,
      "Ġusing": 5804,
      "Ġrecommendations": 5805,
      "Ġturn": 5806,
      "vis": 5807,
      "Ġà¦ħà¦¬": 5808,
      "lds": 5809,
      "Ġà¤µà¤¨": 5810,
      "Ġsupplies": 5811,
      "ĠPost": 5812,
      "à¨µà¨¸": 5813,
      "Ġrequires": 5814,
      "tection": 5815,
      "ï¿½ï¿½ï¿½ï¿½ï¿½ï¿½ï¿½ï¿½ï¿½ï¿½ï¿½": 5816,
      "qual": 5817,
      "Ġcollection": 5818,
      "Ġà¨Ĳà¨²": 5819,
      "Ġà¤ķà¤²à¤®": 5820,
      "à¨ķà¨°à¨¦": 5821,
      "Ġworker": 5822,
      "ĠOR": 5823,
      "Ġ56": 5824,
      "ĠGoa": 5825,
      "It": 5826,
      "Ġcontravention": 5827,
      "Ġà¥§à¥¯à¥": 5828,
      "Ġagricultural": 5829,
      "Ġadministration": 5830,
      "val": 5831,
      "à©Ĥ.": 5832,
      "Ġbid": 5833,
      "à©Įà¨Ĥ": 5834,
      "Ġà´µà´ķ": 5835,
      "à§®": 5836,
      "Ġresearch": 5837,
      "bid": 5838,
      "ording": 5839,
      "à´¯à´µ": 5840,
      "ues": 5841,
      "ulti": 5842,
      "Ġà°ļà°Ł": 5843,
      "Ġnothing": 5844,
      "ĠAccounts": 5845,
      "Ġã·": 5846,
      "Ġà¤µà¤¸": 5847,
      "Department": 5848,
      "Ġbye": 5849,
      "à§Ń": 5850,
      "ĠInformation": 5851,
      "à¤¸à¤Ń": 5852,
      "à¤¸à¤®à¤¯": 5853,
      "&ï¿½": 5854,
      "Ġà¦¥": 5855,
      "Ġ1970": 5856,
      "à¦ľÒĿ": 5857,
      "Ġstep": 5858,
      "att": 5859,
      "Ġstatutory": 5860,
      "à¤¥à¤®": 5861,
      "ĠIs": 5862,
      "ĠBill": 5863,
      "ĠâĢį": 5864,
      "Ġadded": 5865,
      "Ġacquired": 5866,
      "ĠBengal": 5867,
      "Ġà¤ħà¤¤": 5868,
      "tension": 5869,
      "à®¾à®¿": 5870,
      "ĠSup": 5871,
      "à¤¥à¤¤": 5872,
      "ĠEngineering": 5873,
      "Ġà¥¨": 5874,
      "àªĵàª¨": 5875,
      "Ġpractice": 5876,
      "verti": 5877,
      "Ġproduced": 5878,
      "endix": 5879,
      "Ġà¨ħà¨Ĺ": 5880,
      "ĠDef": 5881,
      "Ġforest": 5882,
      "Ġà¤¦à¤°": 5883,
      "ysical": 5884,
      ")ï¿½": 5885,
      "à¦¬à¦·": 5886,
      "fras": 5887,
      "ĠSan": 5888,
      "à¥Ģà¥į": 5889,
      "Ġoption": 5890,
      "Ġothers": 5891,
      "à©ģà¨¿": 5892,
      "orporate": 5893,
      "jar": 5894,
      "icted": 5895,
      "Ġowners": 5896,
      "Ġrespectively": 5897,
      "gÃĢÃĦ": 5898,
      "à¨®à¨¸": 5899,
      "Ġfa": 5900,
      "Ä°": 5901,
      "Ġà´¶": 5902,
      "Ġnow": 5903,
      "Ġà¤¶à¤¬": 5904,
      "Part": 5905,
      "Ġà¬ľ": 5906,
      "Ġ1988": 5907,
      "Çµ": 5908,
      "Ġbar": 5909,
      "Ġtreatment": 5910,
      "à¥Ĥà¤Ĥ": 5911,
      "Ġtimes": 5912,
      "ĠYear": 5913,
      "inding": 5914,
      "ĠSc": 5915,
      "Ġà¤ıà¤²": 5916,
      "atives": 5917,
      "Ġgovernment": 5918,
      "Ġà¤ħà¤ªà¤°": 5919,
      "Ġstr": 5920,
      "ĠSchool": 5921,
      "à®ªà®¤": 5922,
      "Ġwhichever": 5923,
      "ored": 5924,
      "Ġà¤Ŀ": 5925,
      "Ġà¤®à¤®": 5926,
      "ĠWith": 5927,
      "Ġcontribution": 5928,
      "adre": 5929,
      "Ġimpro": 5930,
      "à¦¶à¦¨": 5931,
      "bs": 5932,
      "à´ķà´°": 5933,
      "hya": 5934,
      "Ġà¨¦à¨¸à¨¤": 5935,
      "Ġsing": 5936,
      "Ġdescription": 5937,
      "Ġtwenty": 5938,
      "ables": 5939,
      "sls": 5940,
      "ĠLegislative": 5941,
      "à¨·": 5942,
      "à¨Ĩà¨¹": 5943,
      "Ġïģ³": 5944,
      "à¤Ĭ": 5945,
      "à¨¸à¨ķà¨¦": 5946,
      "à¨²à¨µ": 5947,
      "ĠJustice": 5948,
      "à¦¾,": 5949,
      "à¤²à¤µ": 5950,
      "Ġà¨īà¨®": 5951,
      "ĠPension": 5952,
      "inery": 5953,
      "Ġdjs": 5954,
      "ĠSci": 5955,
      "Ù¹": 5956,
      "ĠReserve": 5957,
      "ÙĤ": 5958,
      "àŃĤ": 5959,
      "ĠTamil": 5960,
      "Ġsought": 5961,
      "Åł": 5962,
      "Ġcommercial": 5963,
      "Ġclaims": 5964,
      "Ġà¬Ń": 5965,
      "Ġlac": 5966,
      "Ġgrade": 5967,
      "____________": 5968,
      "à§§à§¯à§": 5969,
      "Ġï¿½ï¿½ï¿½ï¿½ï¿½ï¿½ï¿½": 5970,
      "ospital": 5971,
      "Ġàª§": 5972,
      "./": 5973,
      "laws": 5974,
      "à´«": 5975,
      "Ġconsultation": 5976,
      "ksf": 5977,
      "Ġ1968": 5978,
      "amine": 5979,
      "Ġà¨¨ÄĤ": 5980,
      "Ġwitnesses": 5981,
      "AP": 5982,
      "||||": 5983,
      "Ġdeclare": 5984,
      "Ġrejected": 5985,
      "UM": 5986,
      "à¤°à¤°à¤¤": 5987,
      "Ġà¨¿à©ģ": 5988,
      "ĠãĪ": 5989,
      "Ġdoubt": 5990,
      "ÃīÃĬ": 5991,
      "Ġprim": 5992,
      "ĠNos": 5993,
      "med": 5994,
      "En": 5995,
      "ieve": 5996,
      "itoring": 5997,
      "indu": 5998,
      "Ġclauses": 5999,
      "Ġconviction": 6000,
      "hentic": 6001,
      "Ġïģ¡": 6002,
      "Ġà¨ķà¨µ": 6003,
      "Ġship": 6004,
      "ergency": 6005,
      "Ġexecuted": 6006,
      "Ġok": 6007,
      "ĠOne": 6008,
      "ribut": 6009,
      "Ġacademic": 6010,
      "Ġconducted": 6011,
      "ih": 6012,
      "à¤®à¤¹": 6013,
      "Ġroll": 6014,
      "Ġà¦ĭ": 6015,
      "lor": 6016,
      "Ġsecurities": 6017,
      "ĠïĤ¬": 6018,
      "Ec": 6019,
      "Sp": 6020,
      "Ġsales": 6021,
      "à¨¤à¨ª": 6022,
      "ological": 6023,
      "à´¾à´Ĥ": 6024,
      "ysis": 6025,
      "Ġbu": 6026,
      "à¸Ģà¸Ģà¸Ģà¸Ģ": 6027,
      "Ġrestriction": 6028,
      "ÂŃ": 6029,
      "ĠAssoci": 6030,
      "ĠMembers": 6031,
      "Ġnames": 6032,
      "Ġexamined": 6033,
      "Ġrepresentative": 6034,
      "Ġà¨¦à¨¤": 6035,
      "Ġknown": 6036,
      "Ġprisoner": 6037,
      "ĠStart": 6038,
      "Ġà¤īà¤ķ": 6039,
      "Ġprejudice": 6040,
      "Ġtype": 6041,
      "à¤ªà¤£": 6042,
      "Ġfiling": 6043,
      "à¥§à¥": 6044,
      "gin": 6045,
      "US": 6046,
      "Ġà¦¬à¦¨": 6047,
      "Ġvehicles": 6048,
      "Ġlandl": 6049,
      "afety": 6050,
      "inks": 6051,
      "ĠRegional": 6052,
      "Ġ1981": 6053,
      "Ġdecide": 6054,
      "Ġneg": 6055,
      "ERN": 6056,
      "Ġelected": 6057,
      "Ġthink": 6058,
      "ĠâĢ¦âĢ¦âĢ¦âĢ¦": 6059,
      "à°°à°£": 6060,
      "Ġenc": 6061,
      "Ġcontended": 6062,
      "'ï¿½ï¿½": 6063,
      "à²¦à²²": 6064,
      "Ġ1980": 6065,
      "LF": 6066,
      "Ġàª¤àª°": 6067,
      "MM": 6068,
      "à²¿à²Ĥ": 6069,
      "à¨®à¨¦": 6070,
      "ĠMet": 6071,
      "Ġà¤¿à¥Ģ": 6072,
      "Ġmut": 6073,
      "Â¬": 6074,
      "à¨Ĺà¨ı": 6075,
      "à¤ıà¤¨": 6076,
      "ĠSam": 6077,
      "ĠController": 6078,
      "Ġà¤īà¤²": 6079,
      "Ġdecisions": 6080,
      "Man": 6081,
      "orand": 6082,
      "Ġcomput": 6083,
      "ĠàªĨàª¦": 6084,
      "Ġà°ħà°ª": 6085,
      "Ġnatural": 6086,
      "ses": 6087,
      "à®µà®¤": 6088,
      "à¦¨à§Ł": 6089,
      "Ġess": 6090,
      "mical": 6091,
      "ĠLFkk": 6092,
      "Ġlimited": 6093,
      "tives": 6094,
      "kfj": 6095,
      "ÃĤ": 6096,
      "Ġestate": 6097,
      "arket": 6098,
      "Ġà¨¸à¨²": 6099,
      "Ġmerely": 6100,
      "à¤¹à¤ķ": 6101,
      "Ġá¾": 6102,
      "Ġïģ£": 6103,
      "ĠList": 6104,
      "Ġsettlement": 6105,
      "Ġfailure": 6106,
      "à¥©": 6107,
      "àµ¼à´¤": 6108,
      "Ġjudicial": 6109,
      "à²¯à²¨": 6110,
      "/ï¿½": 6111,
      "Ġcustom": 6112,
      "Ġmeetings": 6113,
      "Ġ2014": 6114,
      "eration": 6115,
      "Ġaffected": 6116,
      "\"ï¿½ï¿½": 6117,
      "à¤¾à¤¿à¥Ģ": 6118,
      "offic": 6119,
      "Ġvested": 6120,
      "à´¯à´ķ": 6121,
      "à¤ļà¤²": 6122,
      "à¨ļà¨¨": 6123,
      "ĠFinancial": 6124,
      "ĠChand": 6125,
      "à¤¤à¤°à¤¦": 6126,
      "Ġrd": 6127,
      "ĠLocal": 6128,
      "Ġà¦ķà¦¤": 6129,
      "Ġïģ·": 6130,
      "Ġgre": 6131,
      "ĠÎŃà¦¬": 6132,
      "iders": 6133,
      "Ġ2005": 6134,
      "ĠDi": 6135,
      "Ġfresh": 6136,
      "Ġà¨ķà¨¬à¨ľ": 6137,
      "Ġmotor": 6138,
      "à¤¤à¤°à¤£": 6139,
      "Ġremain": 6140,
      "à¦®à¦¨": 6141,
      "à¤¦à¤µ": 6142,
      "Ġà¨¦à¨°à¨ľ": 6143,
      "Ġ1969": 6144,
      "Ġïĥ¥": 6145,
      "à¤ĩà¤¸à¤²": 6146,
      "à¤®à¤®": 6147,
      "à¨ĥ": 6148,
      "Ġworkmen": 6149,
      "Ġà¨ļà¨²": 6150,
      "qDr": 6151,
      "Ġà°Ĺ": 6152,
      "-,": 6153,
      "Ġil": 6154,
      "Ġlicense": 6155,
      "Ġàªªàª£": 6156,
      "Ġà¨¸à¨¤": 6157,
      "Ġpreceding": 6158,
      "à¦£à¦°": 6159,
      "Ġ51": 6160,
      "ĠAl": 6161,
      "ĠWelfare": 6162,
      "ïģ£": 6163,
      "ĠSociety": 6164,
      "ĠïĤı": 6165,
      "Ġthird": 6166,
      "à¤¥à¤¨": 6167,
      "Ġchallen": 6168,
      "ĠAPP": 6169,
      "achal": 6170,
      "ï¿½ï¿½ï¿½ï¿½ï¿½ï¿½ï¿½ï¿½ï¿½ï¿½ï¿½ï¿½": 6171,
      "à¤ľà¤¹": 6172,
      "Ġsupplied": 6173,
      "arh": 6174,
      "itiz": 6175,
      "frastructure": 6176,
      "2019": 6177,
      "àª²àª¨": 6178,
      "ination": 6179,
      "Ġansw": 6180,
      "à¤īà¤ªà¤¯": 6181,
      "ouses": 6182,
      "Ġaccomp": 6183,
      "OP": 6184,
      "ĠPat": 6185,
      "inciple": 6186,
      "à¤ĩà¤¨": 6187,
      "à¤²à¤¹": 6188,
      "qr": 6189,
      "ends": 6190,
      "Çı": 6191,
      "ĠGrade": 6192,
      "âĢ¹": 6193,
      "Ġà¤¨à¤µ": 6194,
      "Ġfigures": 6195,
      "ê¯¦": 6196,
      "à¤ĸà¤°": 6197,
      "Ġadmissible": 6198,
      "ĠÍ": 6199,
      "Gr": 6200,
      "Ġdevelop": 6201,
      "Ġà¦ıà¦¸": 6202,
      "469": 6203,
      "à¦¬à¦²": 6204,
      "à¤ľà¤°": 6205,
      "eak": 6206,
      "Ġdisclos": 6207,
      "ĠâĢ¦âĢ¦âĢ¦âĢ¦âĢ¦âĢ¦âĢ¦âĢ¦": 6208,
      "à¦ĸà¦¨": 6209,
      "Ġ$": 6210,
      "ople": 6211,
      "iting": 6212,
      "Ġà¤ıà¤®": 6213,
      "Amount": 6214,
      "à¨Ĺà¨Ī": 6215,
      "lax": 6216,
      "ĠGovt": 6217,
      "Ġstructure": 6218,
      "Ġà¤¤à¤¯": 6219,
      "-&": 6220,
      "lu": 6221,
      "puk": 6222,
      "Ġtrave": 6223,
      "ĠVI": 6224,
      "ograph": 6225,
      "ĠChe": 6226,
      "Where": 6227,
      "ê¯£": 6228,
      "Ġ2006": 6229,
      "Per": 6230,
      "Ġfair": 6231,
      "ird": 6232,
      "Ġseniority": 6233,
      "Ġ59": 6234,
      "Ġà¨ĩà¨ľ": 6235,
      "Ġpip": 6236,
      "Ġlevied": 6237,
      "Ġretirement": 6238,
      "ĠResearch": 6239,
      "Ġquality": 6240,
      "ĠElection": 6241,
      "riter": 6242,
      "à«ª": 6243,
      "à«ĥ": 6244,
      "Ġà¨ªà©ľ": 6245,
      "Ġ1987": 6246,
      "Ġchildren": 6247,
      "Ġdq": 6248,
      "âĢĸ": 6249,
      "................................................": 6250,
      "Ġindicated": 6251,
      "aya": 6252,
      "à¨°à¨²": 6253,
      "ĠSecond": 6254,
      "Ġremoved": 6255,
      "Ġcheck": 6256,
      "à¤¾ï¿½âĢį": 6257,
      "Ġsource": 6258,
      "PC": 6259,
      "ney": 6260,
      "Ġmanufacture": 6261,
      "Substituted": 6262,
      "ĠWater": 6263,
      "Cl": 6264,
      "ê¯Ł": 6265,
      "à¤ľà¤¨à¤ķ": 6266,
      "Offic": 6267,
      "ca": 6268,
      "ULE": 6269,
      "ception": 6270,
      "Ø¦": 6271,
      "Ġhalf": 6272,
      "Ġà°¹": 6273,
      "Ãª": 6274,
      "âĢįâĢį": 6275,
      "Ġinterp": 6276,
      "Ġstatements": 6277,
      "ectors": 6278,
      "ĠSupreme": 6279,
      "Ġalleged": 6280,
      "Ġwarrant": 6281,
      "à©įà¨¾": 6282,
      "Ġpartners": 6283,
      "Ġloan": 6284,
      "Ġwee": 6285,
      "MP": 6286,
      "land": 6287,
      "Ġà¦¸à¦°à¦ķ": 6288,
      "ĠOrdinance": 6289,
      "IX": 6290,
      ";]": 6291,
      "Ġà¤ħà¤¦": 6292,
      "á±®": 6293,
      "ê¯Ľ": 6294,
      "Ġdisp": 6295,
      "ĠSe": 6296,
      "Ð«à¦°": 6297,
      "ĠWork": 6298,
      "Ġlevy": 6299,
      "ĠRet": 6300,
      "Ass": 6301,
      "Ġ1967": 6302,
      "Ġadjust": 6303,
      "Ġconvey": 6304,
      "à¦°à¦¨": 6305,
      "à¤·à¤¦": 6306,
      "à¨£à¨¨": 6307,
      "Ġdegree": 6308,
      "day": 6309,
      "à¨ľà¨¬": 6310,
      "Ġforth": 6311,
      "Ġder": 6312,
      "ĠProvided": 6313,
      "Ġà¨ĸà¨¤à¨®": 6314,
      "Ġà¨ķà¨¦": 6315,
      "Ġill": 6316,
      "ights": 6317,
      "à²¨à²µ": 6318,
      "Ġvacancies": 6319,
      "Res": 6320,
      "Ġàªħàª®": 6321,
      "2020": 6322,
      "à¤¯à¤²": 6323,
      "+ï¿½": 6324,
      "Ġarrest": 6325,
      "UB": 6326,
      "Ġïģ±": 6327,
      "à««": 6328,
      "Ġacquisition": 6329,
      "Ġdeput": 6330,
      "ĠChancellor": 6331,
      "Ġà¬¸à¬®": 6332,
      "Ġà¨ľà¨®": 6333,
      "cle": 6334,
      "Ġà¬ħà¬§": 6335,
      "ani": 6336,
      "Ġcertified": 6337,
      "ĠfoHkkx": 6338,
      "à¨Īà¨µ": 6339,
      "Ġassistance": 6340,
      "Ġextended": 6341,
      "Ġà¨īà¨ªà¨°": 6342,
      "àµįâĢĮ": 6343,
      "Ġ2015": 6344,
      "Ġweight": 6345,
      "Ġ58": 6346,
      "Ġfacility": 6347,
      "shall": 6348,
      "à¨¨à¨¨": 6349,
      "à´¤à´®": 6350,
      "Ġengaged": 6351,
      "Ġreserved": 6352,
      "Ġdraft": 6353,
      "Ġà¨ĩà¨°": 6354,
      "Ġoil": 6355,
      "ĠDist": 6356,
      "à¨¿,": 6357,
      "Ġïĥ±": 6358,
      "Ġà¨īà¨¦à¨¯": 6359,
      "othing": 6360,
      "ĠTown": 6361,
      "Ġconven": 6362,
      ".:": 6363,
      "Ġservants": 6364,
      "isc": 6365,
      "Ġnomination": 6366,
      "ĠïĤŀ": 6367,
      "Ġremove": 6368,
      "Ġïģ½": 6369,
      "Ġà®°": 6370,
      "Ġamounts": 6371,
      "ĠCr": 6372,
      "Ġdismiss": 6373,
      "ek": 6374,
      "à¨²à¨¹": 6375,
      "election": 6376,
      "Ġ1984": 6377,
      "Ġà®µà®°": 6378,
      "Ġljdkj": 6379,
      "Ġdefendant": 6380,
      "Ġsingle": 6381,
      "Ġà¦īà¦ªà¦°": 6382,
      "Ġreports": 6383,
      "Ã¾": 6384,
      "ĠMaster": 6385,
      "Ġtaxable": 6386,
      "àµ¼à´Ł": 6387,
      "à¨Ĥ,": 6388,
      "Ġdiscretion": 6389,
      "Ġpursuance": 6390,
      "Ġàªıàªµ": 6391,
      "ĠNon": 6392,
      "Ġincident": 6393,
      "position": 6394,
      "oli": 6395,
      "Ġclean": 6396,
      "ĠRa": 6397,
      "reci": 6398,
      "Ġà¨ĩà¨ķà¨°": 6399,
      ",âĢĶ": 6400,
      "astes": 6401,
      "band": 6402,
      "ĠSTATE": 6403,
      "Ġparts": 6404,
      "Ġà¤īà¤ªà¤§": 6405,
      "à¨®à¨ķ": 6406,
      "Ġà¤Ĥ": 6407,
      "Ġà°Ń": 6408,
      "Ġprinciples": 6409,
      "Ġpunishment": 6410,
      "Ġïģ»": 6411,
      "Ġexercised": 6412,
      "à¤ıà¤²": 6413,
      "ÃĸÃĸ": 6414,
      "verage": 6415,
      "Ġáĥ": 6416,
      "ĠïģĹ": 6417,
      "orandum": 6418,
      "Ú¯": 6419,
      "ĠâĢĿ": 6420,
      "ead": 6421,
      "Ġstamp": 6422,
      "Ġdistin": 6423,
      "Ġstorage": 6424,
      "ĠEnvironment": 6425,
      "AI": 6426,
      "NG": 6427,
      "Ġjustice": 6428,
      "ervation": 6429,
      "ĠGroup": 6430,
      "à¨£à¨ķ": 6431,
      "à´İ": 6432,
      "àª°àªµ": 6433,
      "Ġà²¯": 6434,
      "ĠVal": 6435,
      "Su": 6436,
      "Ġà¤¸à¤¬": 6437,
      "Ġàª¨àª¹": 6438,
      "ji": 6439,
      "aneous": 6440,
      "Ġaffidav": 6441,
      "Page": 6442,
      "ĠâĢķ": 6443,
      "âĢĵâĢĵâĢĵâĢĵâĢĵâĢĵâĢĵâĢĵ": 6444,
      "Ġàµĭ": 6445,
      "Ġà¤Ĩà¤ª": 6446,
      "Sl": 6447,
      "Ġ53": 6448,
      "Ġschedule": 6449,
      "she": 6450,
      "Ġ00": 6451,
      "Ġ1978": 6452,
      "Ġà¨ªà¨µ": 6453,
      "ulf": 6454,
      "Ġà´ı": 6455,
      "Ġbenefits": 6456,
      "Ġà¤ĳ": 6457,
      "ĠMadras": 6458,
      "ÂªÃī": 6459,
      "Ġcontrary": 6460,
      "enced": 6461,
      "Ġ1989": 6462,
      "Not": 6463,
      "Ġoccupier": 6464,
      "Ġshowing": 6465,
      "Sche": 6466,
      "ĠFac": 6467,
      "Ġdelivery": 6468,
      "ĠPRO": 6469,
      "ÃĦ": 6470,
      "Ġpoints": 6471,
      "Ġlandlord": 6472,
      "à¨¬à¨²à¨¯": 6473,
      "ions": 6474,
      "ibr": 6475,
      "ĠLok": 6476,
      "Ġà¨ķà¨¹": 6477,
      "Ġexport": 6478,
      "Ġ________________": 6479,
      "ength": 6480,
      "Ġàª°àª¹": 6481,
      "à´ªà´¨": 6482,
      "Ġsugges": 6483,
      "ĠApplication": 6484,
      "à°¥": 6485,
      "Ġprisoners": 6486,
      "Ġtariff": 6487,
      "ources": 6488,
      "mi": 6489,
      "reng": 6490,
      "Ġsystems": 6491,
      "Ġà®¯": 6492,
      "Ġcorresponding": 6493,
      ",ï¿½": 6494,
      "Ġà¨Ĩà¨°à¨Ł": 6495,
      "Ġcred": 6496,
      "ensitive": 6497,
      "Ġwid": 6498,
      "empt": 6499,
      "erala": 6500,
      "ĠJudges": 6501,
      "à¦¹à¦¸": 6502,
      "à¨¾.": 6503,
      "Ġdt": 6504,
      "àª¬àª°": 6505,
      "à³Ĩ.": 6506,
      "Ġlower": 6507,
      "Pre": 6508,
      "Ġà¨¬à¨ķ": 6509,
      "Ġbond": 6510,
      "Ġ66": 6511,
      "from": 6512,
      "Ġà¨¤à¨¨": 6513,
      ".ï¿½": 6514,
      "Ġconsequ": 6515,
      "à¨¼à¨¿à©°": 6516,
      "à¤·à¤¯": 6517,
      "à¤µà¤Ń": 6518,
      "à¨Ĩà¨ª": 6519,
      "iling": 6520,
      "Ġsalary": 6521,
      "Ġ57": 6522,
      "ĠSession": 6523,
      "Ġà¨ħà¨£": 6524,
      "ĠSCR": 6525,
      "Ġleft": 6526,
      "à¦¬Îº": 6527,
      "kq": 6528,
      "à®¿á¾¿": 6529,
      "à¤¾à¤¿à¥ĩ": 6530,
      "Ġparticip": 6531,
      "ĠOrs": 6532,
      "iÃģ": 6533,
      "Ġvir": 6534,
      "Ġizkf": 6535,
      "à¤Īà¤ķ": 6536,
      "à¤µà¤ļ": 6537,
      "Ġproof": 6538,
      "Ġsanctioned": 6539,
      "Ġau": 6540,
      "à²¯à²²": 6541,
      "àµį,": 6542,
      "ĠIT": 6543,
      "iÃī": 6544,
      "ependent": 6545,
      "Ãļ": 6546,
      "ĠStatutes": 6547,
      "GST": 6548,
      "Ãµ": 6549,
      "Ġà¨·": 6550,
      "Ġecon": 6551,
      "à¥«": 6552,
      "Ù°": 6553,
      "URE": 6554,
      "Ġbodies": 6555,
      "ÐĶ": 6556,
      "els": 6557,
      "à«¬": 6558,
      "à¥ª": 6559,
      "Ġàªµàª°": 6560,
      "ĠRece": 6561,
      "Ġindustry": 6562,
      "Ġbon": 6563,
      "Ġordin": 6564,
      "Ġobtaining": 6565,
      "Ġ1908": 6566,
      "à©Īà¨¿": 6567,
      "itable": 6568,
      "Ġcollected": 6569,
      "sub": 6570,
      "ĠTherefore": 6571,
      "Ġà¤ķà¤¬": 6572,
      "á±ļ": 6573,
      "à¦ªà¦²": 6574,
      "à¥ĥï¿½": 6575,
      "àªĩ": 6576,
      "going": 6577,
      "à¤¹à¤¸": 6578,
      "à§Ĺ": 6579,
      "àª¤àª¨": 6580,
      "vksa": 6581,
      "Å¸": 6582,
      "alse": 6583,
      "iency": 6584,
      "ĠAndhra": 6585,
      "Â¶": 6586,
      "Ġtechnical": 6587,
      "Ġvacancy": 6588,
      "àŃįà¬¿": 6589,
      "Ġstreet": 6590,
      "á¾Ĭ": 6591,
      "MC": 6592,
      "Ġcompr": 6593,
      "Ġlead": 6594,
      "Ġdeed": 6595,
      "Ġinvolved": 6596,
      "kst": 6597,
      "ĠÎŃà¦¨": 6598,
      "ĠCirc": 6599,
      "rut": 6600,
      "Ġïĥ¢": 6601,
      "à¤¼à¥Ģ": 6602,
      "Ġ1985": 6603,
      "Ġempower": 6604,
      "pping": 6605,
      "ensing": 6606,
      "arget": 6607,
      "Ġog": 6608,
      "orth": 6609,
      "à°°à°¤": 6610,
      "Ġmand": 6611,
      "à©Ħà¥¤": 6612,
      "Ġà¨®à¨¤": 6613,
      "à¨¾-": 6614,
      "Ġà¤ħà¤µà¤§": 6615,
      "aily": 6616,
      "Ġsocial": 6617,
      "à¤ľà¤¨à¤¯à¤®": 6618,
      "Ġfloor": 6619,
      "Ġcommunication": 6620,
      "Ġwr": 6621,
      "Ġnear": 6622,
      "Ġàªħàª°àªľ": 6623,
      "à¨¨à¨°à¨²": 6624,
      "Â·Â·": 6625,
      "Ġà¨®à¨¨à¨ľ": 6626,
      "gated": 6627,
      "Ġtender": 6628,
      "ĠRailway": 6629,
      "Ġmechan": 6630,
      "Ġconstitute": 6631,
      "Ann": 6632,
      "à¤Ĩà¤Ĺ": 6633,
      "Ġà¤ħà¤¶": 6634,
      "Ðĺ": 6635,
      "ĠOper": 6636,
      "jarat": 6637,
      "1Â½": 6638,
      "à¤§à¤ķà¤°à¤£": 6639,
      "Ġadopted": 6640,
      "Ġguarant": 6641,
      "à¨°à¨¥à¨¨": 6642,
      "lling": 6643,
      "Ġrisk": 6644,
      ",.": 6645,
      "urement": 6646,
      "à²İ": 6647,
      "àªŁàª¨": 6648,
      "Ġprofits": 6649,
      "Ġcurrent": 6650,
      "áĥĪ": 6651,
      "Ä¥": 6652,
      "ternal": 6653,
      "Ġside": 6654,
      "Ġliquid": 6655,
      "Hkkjr": 6656,
      "Ġdamage": 6657,
      "ically": 6658,
      "Ġguil": 6659,
      "Ġdisposed": 6660,
      "arent": 6661,
      "Ġpossess": 6662,
      "Ġïģ¸": 6663,
      "Ġfut": 6664,
      "Ġà¨°à¨ķà¨¸": 6665,
      "Ġà¤Ĩà¤¸": 6666,
      "Ġà¨ĩà¨®": 6667,
      "Ġlarge": 6668,
      "ey": 6669,
      "Ġ1977": 6670,
      "à¨¤à¨¤": 6671,
      "Ġesc": 6672,
      "Ġframed": 6673,
      "umer": 6674,
      "Ġprescrib": 6675,
      "medi": 6676,
      "à°¿,": 6677,
      "âĢ°": 6678,
      "Ġexemption": 6679,
      "Ġdetermination": 6680,
      "krk": 6681,
      "à¤¨à¤§": 6682,
      "Ġà": 6683,
      "à¦¤Îº": 6684,
      "à¨¿à©±à¨¿": 6685,
      "Ġexchange": 6686,
      "Ġtransactions": 6687,
      "ĠÎŃÏł": 6688,
      "Ġà¨Ĳà¨®": 6689,
      "Ġdiscus": 6690,
      "aste": 6691,
      "Or": 6692,
      "Â¯": 6693,
      "à¨Ĩà¨¯": 6694,
      "Ġproc": 6695,
      "FC": 6696,
      "Ġinstrument": 6697,
      "à¥įâĢį": 6698,
      "Ñ£": 6699,
      "ĠïģĢ": 6700,
      "Ġenvironment": 6701,
      "rutin": 6702,
      "à®±à®¤": 6703,
      "ĠSafety": 6704,
      "Ġadministrative": 6705,
      "hereinafter": 6706,
      "essment": 6707,
      "ĠMon": 6708,
      "oj": 6709,
      "Ġrepresentation": 6710,
      "hs": 6711,
      "à¨Ńà¨°": 6712,
      "Ġaccommod": 6713,
      "Ġinf": 6714,
      "ann": 6715,
      "ĠSubstituted": 6716,
      "Ġthinks": 6717,
      "°ïģļ": 6718,
      "Ġà¨¸à¨¸": 6719,
      "ĠAS": 6720,
      "Ġà¤¶à¤ķ": 6721,
      "Ġenacted": 6722,
      "à¤Łà¤²": 6723,
      "à§¯": 6724,
      "Ġunderst": 6725,
      "Ġagreed": 6726,
      "ixed": 6727,
      "Ġà¦ªà¦°": 6728,
      "à®®à®©": 6729,
      "Ġibid": 6730,
      "Ġinvalid": 6731,
      "Ġ68": 6732,
      "à¤¾ï¿½ï¿½": 6733,
      "ĠProm": 6734,
      "Ġà²Ī": 6735,
      "ili": 6736,
      "Ġconform": 6737,
      "Ġexpedi": 6738,
      "ĠBr": 6739,
      "Ġà¤¬à¤°": 6740,
      "ĠâĢĭ": 6741,
      "Ġobjections": 6742,
      "Ġanswer": 6743,
      "Ġmove": 6744,
      "Ġeducational": 6745,
      "SE": 6746,
      "ayment": 6747,
      "ults": 6748,
      "Ġà¨¬à¨¦à¨²": 6749,
      "Ġarises": 6750,
      "Ġ226": 6751,
      "ĠKh": 6752,
      "ins": 6753,
      "à²°à²¤": 6754,
      "Ġcategories": 6755,
      "Ġrelig": 6756,
      "Ġ1979": 6757,
      "cluded": 6758,
      "ishad": 6759,
      "ĠMunicipality": 6760,
      "Ġqualifications": 6761,
      "Ġà®ĩà®°": 6762,
      "ĠAdministration": 6763,
      "Ġcourts": 6764,
      "Ġ62": 6765,
      "ĠExamination": 6766,
      "Ġmortgage": 6767,
      "à¤ļà¤ļ": 6768,
      "à¤¶à¤¦": 6769,
      "str": 6770,
      "ĠÛģ": 6771,
      "ĠAdvocate": 6772,
      "Ġ1982": 6773,
      "à¨¿à©ģà©±": 6774,
      "Ġprepare": 6775,
      "Ġquestions": 6776,
      "à¥ĭà¥¤": 6777,
      "Ġsuspension": 6778,
      "Ġà¦Ĩà¦ª": 6779,
      "hab": 6780,
      "Ġcalculated": 6781,
      "',": 6782,
      "à«Ń": 6783,
      "wpuk": 6784,
      "Ġpetitioners": 6785,
      "à¨¬à¨Ĭà¨¨à¨²": 6786,
      "apur": 6787,
      "Ġprinciple": 6788,
      "à¬¦à¬¨": 6789,
      "à¨¦à¨Ĺ": 6790,
      "Ġà®ļà®Ł": 6791,
      "%ï¿½ï¿½": 6792,
      "Ġinvestment": 6793,
      "à¨Ĭà¨Ł": 6794,
      "ĠâĢ¦": 6795,
      "YY": 6796,
      "ogniz": 6797,
      "Ġauthentic": 6798,
      "ĠStation": 6799,
      "ĠRequ": 6800,
      "Ġà¦¨à§Ł": 6801,
      "Ġsend": 6802,
      "2018": 6803,
      "ĠInsurance": 6804,
      "Ġaffect": 6805,
      "à¨¨à¨µ": 6806,
      "Ġappellate": 6807,
      "Ġdeposited": 6808,
      "Âī": 6809,
      "laim": 6810,
      "Ġtransl": 6811,
      "Tax": 6812,
      "Ġ2000": 6813,
      "Ġï¿½à¥ĩ": 6814,
      "àŃįà¬¾": 6815,
      "Ġà©Ľà¨®": 6816,
      "Ġdru": 6817,
      "à´Łà´ª": 6818,
      "ĠAm": 6819,
      "Ġà¤®à¤¦": 6820,
      "Ġmachinery": 6821,
      "ugned": 6822,
      "Ġbring": 6823,
      "&ï¿½ï¿½": 6824,
      "à¨®à¨Ĩà¨¦": 6825,
      "Ġdiss": 6826,
      "Ġà¤ªà¤°à¤°": 6827,
      "Ġà¤Ĩà¤Ĺ": 6828,
      "Ġdesignated": 6829,
      "Ġfalse": 6830,
      "fDr": 6831,
      "Ġà«©": 6832,
      "Ġguard": 6833,
      "utes": 6834,
      "Ġà¦ķà¦®": 6835,
      "Ġconsumer": 6836,
      "à¤£à¤¨": 6837,
      "Ġactivity": 6838,
      "ksM": 6839,
      "HEDULE": 6840,
      "ĠChar": 6841,
      "Ġ1996": 6842,
      "ELL": 6843,
      "à¤¡à¤²": 6844,
      "Ġà°ı": 6845,
      "à¤¤à¤²": 6846,
      "ĠHindu": 6847,
      "MA": 6848,
      "à¤ļà¤µ": 6849,
      "à°¿à°¿": 6850,
      "isions": 6851,
      "à¤łà¤¨": 6852,
      "rolled": 6853,
      "Ġenforce": 6854,
      "ØŃ": 6855,
      "ĠË": 6856,
      "ÚºÛĮ": 6857,
      "ĠClause": 6858,
      "à¤µà¤¦": 6859,
      "kku": 6860,
      "Ġhow": 6861,
      "àªķàªµ": 6862,
      "holders": 6863,
      "Ġà¤ªà¤¹": 6864,
      "ĠSUPP": 6865,
      "no": 6866,
      "à¥¬": 6867,
      "à±įâĢĮ": 6868,
      "ifying": 6869,
      "Ġleg": 6870,
      "à¨«à¨²": 6871,
      "Chair": 6872,
      "à¤®à¤Ĺ": 6873,
      "Ġà¤¸à¤ľ": 6874,
      "Ġstudy": 6875,
      "OD": 6876,
      "Ġclasses": 6877,
      "à¦Ĥà§ĩ": 6878,
      "Ġvest": 6879,
      "Ġordinary": 6880,
      "Ġrequisition": 6881,
      "Ġsignature": 6882,
      "ÃŁ": 6883,
      "à¨Ĺà¨¦": 6884,
      "atuity": 6885,
      "à²¯à²®": 6886,
      "Ġspace": 6887,
      "à¨ľà¨°": 6888,
      "àª¨àª¨": 6889,
      "Direct": 6890,
      "Ġprobation": 6891,
      "Ġcontinued": 6892,
      "Ġà¨īà¨ł": 6893,
      "Ġmight": 6894,
      "ĠÂ¤": 6895,
      "Ġcaused": 6896,
      "à¤«à¤²": 6897,
      "Ġstatus": 6898,
      "ĠAir": 6899,
      "Ġfulf": 6900,
      "à«®": 6901,
      "ĠSales": 6902,
      "Ġyk": 6903,
      "CH": 6904,
      "ude": 6905,
      "Âĺ": 6906,
      "usband": 6907,
      "ĠAllow": 6908,
      "efr": 6909,
      "à¬Ĩ": 6910,
      "à¨īà¨¹": 6911,
      "Par": 6912,
      "Ġà©±": 6913,
      "ĠParishad": 6914,
      "Ġseven": 6915,
      "Ġà¦ħà¦¨ÒĿ": 6916,
      "Ġ70": 6917,
      "Ġdanger": 6918,
      "Ġml": 6919,
      "ĠCapital": 6920,
      "Ġà°Ĵ": 6921,
      "ÃĴ": 6922,
      "war": 6923,
      "Ġsituated": 6924,
      "à¤Ńà¤°": 6925,
      "à´®à´¤": 6926,
      "Ġà²ħà²¥": 6927,
      "Ġsole": 6928,
      "Ġhuman": 6929,
      "à¨¤à¨¨": 6930,
      "mitting": 6931,
      "ĠÎŃà¦¸à¦ĩ": 6932,
      "pen": 6933,
      "urned": 6934,
      "Ġcal": 6935,
      "à°«": 6936,
      "Ġrecovered": 6937,
      "âĪ": 6938,
      "ERNMENT": 6939,
      "ĠAnnexure": 6940,
      "Ġà¨¼": 6941,
      "aduate": 6942,
      "Ġàª¯": 6943,
      "ĠãĪī": 6944,
      "ĠPenal": 6945,
      "à¦¾à¦ģ": 6946,
      "cr": 6947,
      "àª¦àª°": 6948,
      "Ġàª¸àª°àªķ": 6949,
      "ĠManager": 6950,
      "Ġjudge": 6951,
      "á¾¸à®¤": 6952,
      "à¤®à¤¦": 6953,
      "à¨ħà¨¸": 6954,
      "Ġille": 6955,
      "Ġissues": 6956,
      "Ġconvicted": 6957,
      "Ġà¤ľà¤²": 6958,
      "Ġà¨ĩà¨¨à¨ķ": 6959,
      "Ġfifty": 6960,
      "àªªàª£": 6961,
      "ĠAU": 6962,
      "Add": 6963,
      "gress": 6964,
      "axs": 6965,
      "îģ": 6966,
      "IP": 6967,
      "];": 6968,
      "Ġasset": 6969,
      "ows": 6970,
      "âĢĿ.": 6971,
      "Ġseparately": 6972,
      "Ġcomb": 6973,
      "Ġdischar": 6974,
      "ently": 6975,
      "Ã·": 6976,
      "Ġ85": 6977,
      "Ġà©Ľà¨°": 6978,
      "ĠAcademic": 6979,
      "Ġà¨¹à¨¦": 6980,
      "ĠUr": 6981,
      "Ġmodification": 6982,
      "ïģ¾": 6983,
      "umar": 6984,
      "Ġcompon": 6985,
      "Ġpat": 6986,
      "Ġea": 6987,
      "ett": 6988,
      "Ã¯": 6989,
      "Ġmanager": 6990,
      "Ġjkti": 6991,
      "Ġwrong": 6992,
      "ĠÂ¨": 6993,
      "Ġexamine": 6994,
      "Ġimpugned": 6995,
      "à¨®à¨¨": 6996,
      "Ġcul": 6997,
      "ĠVehic": 6998,
      "Ġà¦Ł": 6999,
      "2016": 7000,
      "ĠFrom": 7001,
      "Ġà§§à§¯à§«": 7002,
      "ĠSecurity": 7003,
      "Ġadjud": 7004,
      "à¤¦à¤¸": 7005,
      "à¤¨à¤ª": 7006,
      "Ġà´īà´¤": 7007,
      "ape": 7008,
      "Ġtrib": 7009,
      "Ġln": 7010,
      "Ġà¤Ĭ": 7011,
      "Ġbasic": 7012,
      "ump": 7013,
      "à¤¸à¤®à¤Ŀ": 7014,
      "ĠApplic": 7015,
      "ÃĢÃĦÃŁ": 7016,
      "à¤¦à¤®": 7017,
      "Ġassociation": 7018,
      "Ġred": 7019,
      "ĠSm": 7020,
      "Ġ1993": 7021,
      "riev": 7022,
      "Ġasp": 7023,
      "à´µà´¶": 7024,
      "à¨§à¨Ĩà¨¨": 7025,
      "Ġà¤¹à¤¹": 7026,
      "Ġforms": 7027,
      "Ġsk": 7028,
      "Member": 7029,
      "Ġproved": 7030,
      "ĠRegulatory": 7031,
      "ĠSab": 7032,
      "Ġà¤¹à¤ķ": 7033,
      "Ġsubsection": 7034,
      "Ġà§ª": 7035,
      "ĠJudicial": 7036,
      "ÄĲ": 7037,
      "Ġtaxes": 7038,
      "à®³à®°": 7039,
      "Ġascer": 7040,
      ".....": 7041,
      "Ġstruct": 7042,
      "à¥Ĥ.": 7043,
      "Ġrelease": 7044,
      "mir": 7045,
      "ishing": 7046,
      "Ġà¨Ŀ": 7047,
      "Ġqualification": 7048,
      "âĤ¹": 7049,
      "à¤®à¤°": 7050,
      "à²ħ": 7051,
      "ĠAb": 7052,
      "On": 7053,
      "Ġimprove": 7054,
      "à¤¾:": 7055,
      "Ġ2012": 7056,
      "par": 7057,
      "Ġã·¨": 7058,
      "Ġàªĵ": 7059,
      "gregate": 7060,
      "kkj": 7061,
      "à¨¸à¨µà¨²": 7062,
      "ĠXXX": 7063,
      "ĠTribes": 7064,
      "Ġ500": 7065,
      "Ġeval": 7066,
      "atio": 7067,
      "Ġ1995": 7068,
      "Ġà¤ĩà¤¸à¤®": 7069,
      "ï¿½à¥ĭ": 7070,
      "Ġordinarily": 7071,
      "Ġimmovable": 7072,
      "à´ĸ": 7073,
      "resp": 7074,
      "à¤ħà¤²": 7075,
      "Ġarrangements": 7076,
      "Rule": 7077,
      "Ġà®İà®¤": 7078,
      "Zr": 7079,
      "Ú¾": 7080,
      "Ġsteps": 7081,
      "à©°.": 7082,
      "criber": 7083,
      "Ġsy": 7084,
      "Details": 7085,
      "à¤ķà¤¡": 7086,
      "Ġarri": 7087,
      "SP": 7088,
      "ĠïĤĤ": 7089,
      "Ġà²Ĵ": 7090,
      "old": 7091,
      "Ġïģ¥": 7092,
      "ĠCollege": 7093,
      "sy": 7094,
      "riteria": 7095,
      "Ġliabilities": 7096,
      "à°°à°ķ": 7097,
      "elling": 7098,
      "Ġpresence": 7099,
      "Ã¥": 7100,
      "Ġseveral": 7101,
      "1964": 7102,
      "Ġrendered": 7103,
      "Ġà®ĩà®¨": 7104,
      "à¤ĺà¤¨": 7105,
      "à¨¹à¨£": 7106,
      "à©Ī:": 7107,
      "Ġfuture": 7108,
      "Ġà¨Ĩà¨°à¨¡": 7109,
      "à¨ķà¨°à¨£": 7110,
      "Whether": 7111,
      "ĠBY": 7112,
      "ĠJoint": 7113,
      "à¦¶ÒĿ": 7114,
      "Ġlabour": 7115,
      "à¤ħà¤²à¤Ĺ": 7116,
      "Ġloans": 7117,
      "Ġà¤ĸà¤°": 7118,
      "ĠProject": 7119,
      "Ġunf": 7120,
      "ĠWest": 7121,
      "Ġdetailed": 7122,
      "uration": 7123,
      "Ġbreach": 7124,
      "Ø²": 7125,
      "Ġpermissible": 7126,
      "à¤¬à¤²": 7127,
      "Ġvlk": 7128,
      "Vj": 7129,
      "ĠOrgan": 7130,
      "à¨ĭ": 7131,
      ")ï¿½ï¿½": 7132,
      "à´°à´¸": 7133,
      "áī": 7134,
      "Ġtook": 7135,
      "Ġrevised": 7136,
      "unt": 7137,
      "ĠStud": 7138,
      "Ġà¨¨à¨¦": 7139,
      "à´¤à´°à´µ": 7140,
      "ĠMarket": 7141,
      "Ġstreng": 7142,
      "dh": 7143,
      "Ġprofessional": 7144,
      "Ġbest": 7145,
      "ê¯ı": 7146,
      "àªķàª¨": 7147,
      "Ġ1983": 7148,
      "ĠAdvis": 7149,
      "à¨Īà¨ķ": 7150,
      "Ġà¬¯": 7151,
      "ked": 7152,
      "Ġsw": 7153,
      "Ġïĥ°": 7154,
      "Ġstip": 7155,
      "Ġload": 7156,
      "à¤¤à¤¦": 7157,
      "ĠLo": 7158,
      "Ġball": 7159,
      "à¨¹à¨ķ": 7160,
      "Ġà¨µà¨ķà¨¸": 7161,
      "ĠàªĨàª°": 7162,
      "Ġguilty": 7163,
      "using": 7164,
      "Ġ2011": 7165,
      "Ġrenewal": 7166,
      "à¤°à¤ķà¤°à¤¨": 7167,
      "ĠRel": 7168,
      "Ġpreparation": 7169,
      "ĠAccording": 7170,
      "111": 7171,
      "à¤µà¤ľà¤¨": 7172,
      "DC": 7173,
      "Ġà¨¾à¨Ĥ": 7174,
      "hibition": 7175,
      "Ġgrow": 7176,
      "Ġreturns": 7177,
      "Ġcompanies": 7178,
      "à¥®": 7179,
      "ĠÚºÛĮ": 7180,
      "Ġ2025": 7181,
      "Ġperformed": 7182,
      "!ï¿½ï¿½ï¿½": 7183,
      "Ġà²Ĺ": 7184,
      "nu": 7185,
      "à°¤à°°": 7186,
      "à¤²à¤¯à¤¨": 7187,
      "ategory": 7188,
      "Ġessential": 7189,
      "à¤ķà¤ª": 7190,
      "à²¤à²°": 7191,
      "Ġà®Ĵà®°": 7192,
      "à¤¿à¤¿à¤¾": 7193,
      "Ġsmall": 7194,
      "Ġ72": 7195,
      "perty": 7196,
      "Ġcitiz": 7197,
      "à°²à°ķ": 7198,
      "Ġrks": 7199,
      "ĠExtraordinary": 7200,
      "portion": 7201,
      "ĠReturn": 7202,
      "2022": 7203,
      "Ġstatute": 7204,
      "Ġnotwithstanding": 7205,
      "àª¯àª¨": 7206,
      "reasury": 7207,
      "HER": 7208,
      "Ġamongst": 7209,
      "ross": 7210,
      "ĠAddress": 7211,
      "Rep": 7212,
      "olly": 7213,
      "Ġconstitu": 7214,
      "à¤ĸà¤²": 7215,
      "ĠÏķà¦¦": 7216,
      "Ġpersonnel": 7217,
      "Ġà¨¤à¨¨à¨ĸ": 7218,
      "Ġdiv": 7219,
      "ox": 7220,
      "Ġpassing": 7221,
      "Ġfifteen": 7222,
      "Ġimportant": 7223,
      "Ġintrodu": 7224,
      "Ġenerg": 7225,
      "Ġvote": 7226,
      "àªħ": 7227,
      "Ġcourses": 7228,
      "Ġrestric": 7229,
      "Ġà¤ıà¤¨": 7230,
      "#ï¿½ï¿½ï¿½": 7231,
      "bur": 7232,
      "Ġnational": 7233,
      "achment": 7234,
      "Ġclose": 7235,
      "Ġà¤¤à¤¬": 7236,
      "ĠLevel": 7237,
      "tis": 7238,
      "Ġinterpret": 7239,
      "ĠShe": 7240,
      "ĠExplanation": 7241,
      "Ġaid": 7242,
      "Ġ).": 7243,
      "AKA": 7244,
      "à¤¦à¤¤": 7245,
      "Ġhel": 7246,
      "uls": 7247,
      "ĠEco": 7248,
      "Ġremaining": 7249,
      "àªĹàªµ": 7250,
      "Ġcut": 7251,
      "Ġinvolving": 7252,
      "à¤¾(": 7253,
      "à®²à®¤": 7254,
      "Ġsubstance": 7255,
      "Ġfaith": 7256,
      "UT": 7257,
      "Ġà§ĩ": 7258,
      "Ġable": 7259,
      "ĠDetails": 7260,
      "ali": 7261,
      "Ġscope": 7262,
      "actory": 7263,
      "Ġfue": 7264,
      "Ġenclos": 7265,
      "à¨ªà¨¹": 7266,
      "à¨²à¨Ł": 7267,
      "à¤¥à¤ķ": 7268,
      "à²¾à²¾": 7269,
      "àŃŁà¬®": 7270,
      "à¦¨à¦§": 7271,
      "ĠAC": 7272,
      "ointment": 7273,
      "à¨¨à¨°à¨£": 7274,
      "Any": 7275,
      "ourse": 7276,
      "TIONS": 7277,
      "ĠQu": 7278,
      "ĠSubs": 7279,
      "Ġ1939": 7280,
      "à¤¬à¤¦": 7281,
      "à¦ļà¦¤": 7282,
      "Ġphysical": 7283,
      "ĠElectricity": 7284,
      "Ġï¿½ï¿½ï¿½ï¿½ï¿½ï¿½ï¿½ï¿½ï¿½ï¿½ï¿½ï¿½ï¿½ï¿½ï¿½ï¿½": 7285,
      "Ġmode": 7286,
      "ole": 7287,
      "Ġacts": 7288,
      "Ġpresented": 7289,
      "à«§à«¯à«": 7290,
      "Ġassessed": 7291,
      "Ġquantity": 7292,
      "ĠÏł": 7293,
      "Ġ1991": 7294,
      "Ø§Ø±": 7295,
      "Ġ1990": 7296,
      "Ġ115": 7297,
      "Ġsubordinate": 7298,
      "Ġextension": 7299,
      "Ġà¨¤à¨µ": 7300,
      "LFkku": 7301,
      "àªķàª®": 7302,
      "Ġliquor": 7303,
      "Ġacting": 7304,
      "Ġà¤¤à¤°à¤¹": 7305,
      "vÃĢ": 7306,
      "ÃĽ": 7307,
      "Ġarrears": 7308,
      "cher": 7309,
      "Ġgas": 7310,
      "ĠBar": 7311,
      "ĠAff": 7312,
      "Ġlength": 7313,
      "à¦Ĥà¦¿": 7314,
      "Ġconsidering": 7315,
      "Ġmajority": 7316,
      "à¨ļà¨¦": 7317,
      "Ġenergy": 7318,
      "Ġcreated": 7319,
      "Ġschemes": 7320,
      "Ġà¨Ĩà¨¯": 7321,
      "2021": 7322,
      "Ġaffidavit": 7323,
      "ĠMar": 7324,
      "à¤¤à¤ķà¤°": 7325,
      "Ġanalysis": 7326,
      "Ġallotted": 7327,
      "Ġcrore": 7328,
      "ĠVillage": 7329,
      "à¤Ķà¤°à¤¸": 7330,
      "Ġobj": 7331,
      "Ġà¤ħà¤ľà¤§": 7332,
      "à¤µà¤ª": 7333,
      "Ġrepealed": 7334,
      "Ġadverti": 7335,
      "Ġ2009": 7336,
      "ĠREG": 7337,
      "à°ĸ": 7338,
      "Ġà¨Į": 7339,
      "Ġenable": 7340,
      "ĠJJ": 7341,
      "à¨®à¨ľ": 7342,
      "LO": 7343,
      "Table": 7344,
      "Ġyour": 7345,
      "Ġà¨µà¨°": 7346,
      "KK": 7347,
      "Ġ2003": 7348,
      "Ġà¨Ĳà¨ķà¨¸": 7349,
      "à¨¤à¨²": 7350,
      "ayed": 7351,
      "Ġà¨¿à¨¾à¨Ĥ": 7352,
      "à¨«à¨ķ": 7353,
      "Ġnormal": 7354,
      "Ġfind": 7355,
      "Ġprocedures": 7356,
      "2023": 7357,
      "Number": 7358,
      "anied": 7359,
      "Ġaccident": 7360,
      "âĢĶâĢĶâĢĶâĢĶâĢĶâĢĶâĢĶâĢĶâĢĶâĢĶâĢĶâĢĶâĢĶâĢĶâĢĶâĢĶ": 7361,
      "Ġletters": 7362,
      "à¦ªà¦°": 7363,
      "Ġpressure": 7364,
      "Ġindependent": 7365,
      "ammu": 7366,
      "ê¯Ħ": 7367,
      "à®¤à®¤": 7368,
      "ĠSections": 7369,
      "á¾°á¾ģ": 7370,
      "à¤Ńà¤µ": 7371,
      "Ġmeant": 7372,
      "tificates": 7373,
      "Ġprocesses": 7374,
      "vkbZ": 7375,
      "ÎŃ": 7376,
      "à¨Ńà¨µ": 7377,
      "ched": 7378,
      "Ġreported": 7379,
      "Ġlit": 7380,
      "Ġà¥©": 7381,
      "ĠAppendix": 7382,
      "Ġactually": 7383,
      "ĠâĢĻ": 7384,
      "Ġà¨¸à¨®à¨°": 7385,
      "IG": 7386,
      "arters": 7387,
      "obile": 7388,
      "Ġproperly": 7389,
      "face": 7390,
      "Ġmotion": 7391,
      "à¨ªà¨¦": 7392,
      "àª¿àªĤ": 7393,
      "Ġà®ı": 7394,
      "umption": 7395,
      "urrence": 7396,
      "Ġà®ħà®²": 7397,
      "Ġdealing": 7398,
      "Ġà¨µà¨¸à¨¤": 7399,
      "TIFIC": 7400,
      "Ġcorporate": 7401,
      "Ġseal": 7402,
      "ectoral": 7403,
      "ĠTerrit": 7404,
      "ĠActs": 7405,
      "1962": 7406,
      "DE": 7407,
      "Ġdise": 7408,
      "à¤ķà¤µ": 7409,
      "Ġson": 7410,
      "ÂªÃģ": 7411,
      "ĠïĤĦ": 7412,
      "à¨ĩà¨ľ": 7413,
      "ĠLaws": 7414,
      "raud": 7415,
      "Ġmining": 7416,
      "à¨¨à¨®": 7417,
      "selves": 7418,
      "Ġlegisl": 7419,
      "Ġà¨¹à¨Ł": 7420,
      "à¤¿à¥Ģà¤¿": 7421,
      "Ġherein": 7422,
      "Ġelectricity": 7423,
      "à©Ī;": 7424,
      "Ġ65": 7425,
      "issa": 7426,
      "ê¯¡": 7427,
      "Ġà¨ķà¨Ī": 7428,
      "Ġincrease": 7429,
      "ipur": 7430,
      "à¤¦à¤¶": 7431,
      "Ġ73": 7432,
      "à¤Ķà¤°à¤ķ": 7433,
      "Ġprofit": 7434,
      "Ġà´ĵ": 7435,
      "á¾¶": 7436,
      "Ġmost": 7437,
      "kfr": 7438,
      "à¦ĺ": 7439,
      "à¤ļà¤°": 7440,
      "tifying": 7441,
      "ays": 7442,
      "Ġà¤ħà¤®": 7443,
      "Ġwholly": 7444,
      "Ġvirt": 7445,
      "Ġà°Ł": 7446,
      "ki": 7447,
      "à°ķà°°": 7448,
      "ĠKash": 7449,
      "Ġaud": 7450,
      "Ġbecomes": 7451,
      "Ġteachers": 7452,
      "Ġcross": 7453,
      "Ġà¨¦à¨¦": 7454,
      "Ġsize": 7455,
      "ĠCastes": 7456,
      "Ġprivi": 7457,
      "cum": 7458,
      "irth": 7459,
      "let": 7460,
      "à´µà´°": 7461,
      "mon": 7462,
      "à¯ģ,": 7463,
      "à¤µà¤®": 7464,
      "amental": 7465,
      "Ġà¨ĩà¨¸à¨¤": 7466,
      "Ġys": 7467,
      "ê¯ł": 7468,
      "ĠïģĦ": 7469,
      "ĠWorks": 7470,
      "ĠStandards": 7471,
      "Ġcadre": 7472,
      "ĠàŃ": 7473,
      "year": 7474,
      "ĠCompetent": 7475,
      "à¨Łà¨®": 7476,
      "Ġsurvey": 7477,
      "Ġà´Ĺ": 7478,
      "Ġmulti": 7479,
      "ffer": 7480,
      "à¤²à¤¬": 7481,
      "overy": 7482,
      "ĠHkk": 7483,
      "à²²à²¯": 7484,
      "Ġempowered": 7485,
      "Ġ2010": 7486,
      "Ġbene": 7487,
      "ĠAdministrative": 7488,
      "à¤ªà¤°à¤µ": 7489,
      "ĠAssam": 7490,
      "Ġwomen": 7491,
      "aman": 7492,
      "à¨Ľà¨²": 7493,
      "licate": 7494,
      "1994": 7495,
      "Ġinsurance": 7496,
      "Ġlh": 7497,
      "à®©à®¤": 7498,
      "à´ķà´ª": 7499,
      "itial": 7500,
      "ĠLimited": 7501,
      "Ġ1992": 7502,
      "Ġverification": 7503,
      "PÃĢÃ": 7504,
      "à¤ħà¤¦": 7505,
      "Ġ64": 7506,
      "Ġà¤ıà¤¸à¤¸": 7507,
      "Ġã±": 7508,
      "ĠKerala": 7509,
      "Ġmic": 7510,
      "ij": 7511,
      "Ġobligation": 7512,
      "à¨µà¨ķà¨°": 7513,
      "à¤¦à¤Ń": 7514,
      "Ġpayments": 7515,
      "Ġpreferred": 7516,
      "Ġresidence": 7517,
      "Ġà¨µà¨°à¨Ĺ": 7518,
      "Ġà¤Ĩà¤ķ": 7519,
      "Ġplans": 7520,
      "Ġprogramme": 7521,
      "Ġà²ªà²°": 7522,
      "Ġmind": 7523,
      "ĠRespond": 7524,
      "Ġcounter": 7525,
      "à¤¹à¤ı": 7526,
      "tegr": 7527,
      "Ġaccompanied": 7528,
      "author": 7529,
      "ives": 7530,
      "à¤ħà¤ªà¤°": 7531,
      "DD": 7532,
      "ĠÛĮÚ©": 7533,
      "à¨¬à¨Ī": 7534,
      "2Â½": 7535,
      "::": 7536,
      "Ġpop": 7537,
      "Ġexceeds": 7538,
      "ĠLeave": 7539,
      "Ġà¨¨à¨¸": 7540,
      "ploma": 7541,
      "È£": 7542,
      "Ġà¨¤à¨°à¨ľ": 7543,
      "Ġpara": 7544,
      "à¨¼à©±": 7545,
      "à¨¼à©°": 7546,
      "à¤¿à¥ĩâĢį": 7547,
      "Ġdjuk": 7548,
      "Ġ1946": 7549,
      "Ġà¨ħà¨¯": 7550,
      "à´¯à´ª": 7551,
      "One": 7552,
      "Pl": 7553,
      "Ġconsumption": 7554,
      "Ġfully": 7555,
      "Ġsubscriber": 7556,
      "ï¿½ï¿½à¥Ģ": 7557,
      "Ġà°¡": 7558,
      "Ġargument": 7559,
      "à¤Ĺà¤²": 7560,
      "Ġcontinuous": 7561,
      "iy": 7562,
      "à¨°à¨ľà¨ķ": 7563,
      "Ġâ¸": 7564,
      "Ġallotment": 7565,
      "Ġïģ¦": 7566,
      "Ġaccommodation": 7567,
      "à±įà±ĩ": 7568,
      "ĠGujarat": 7569,
      "Ġimpose": 7570,
      "ĠàªĨàª§": 7571,
      "ïĥĽ": 7572,
      "El": 7573,
      "Ġvoid": 7574,
      "Ġà¨°à¨¤": 7575,
      "tities": 7576,
      "Ġrailway": 7577,
      "Ġà¨ĸà¨°à¨ļ": 7578,
      "ĠExchange": 7579,
      "Ġldr": 7580,
      "Ġoccas": 7581,
      "à¤¤à¤°à¤¹à¤¸": 7582,
      "Ġself": 7583,
      "Ġà¨ªà¨°à¨¦": 7584,
      "ĠïĢª": 7585,
      "ĠCor": 7586,
      "à¤łà¤ķ": 7587,
      "VII": 7588,
      "tingu": 7589,
      "à¤©": 7590,
      "Ġà±Ī": 7591,
      "Ġemergency": 7592,
      "Ġ63": 7593,
      "Ġdaily": 7594,
      "Ġsem": 7595,
      "ĠWhether": 7596,
      "Ġà¦¬à¦²": 7597,
      "Ġà¨ħà¨µà¨§à¨ķ": 7598,
      "Ms": 7599,
      "ĠKumar": 7600,
      "Ġjour": 7601,
      "à¤±": 7602,
      "Ġdefinition": 7603,
      "Ġà¤ħà¤ķ": 7604,
      "pper": 7605,
      "ĠïĤĪ": 7606,
      "ÃĢiÃģ": 7607,
      "Ġreturned": 7608,
      "Ġà¤¿à¥Ī": 7609,
      "Ġà¤¦à¤ķà¤ı": 7610,
      "ÆĶ": 7611,
      "à¦ķÎº": 7612,
      "lf": 7613,
      "arb": 7614,
      "Ġfailed": 7615,
      "àª¸àª¨": 7616,
      "erce": 7617,
      "Ġmonthly": 7618,
      "ga": 7619,
      "Ġirre": 7620,
      "slh": 7621,
      "**<": 7622,
      "initions": 7623,
      "rh": 7624,
      "Ġà¦īÐ«à¦°": 7625,
      "Ġdeputation": 7626,
      "requ": 7627,
      "Ġdetermining": 7628,
      "Sc": 7629,
      "HAN": 7630,
      "sc": 7631,
      "Ġà´ħà´§": 7632,
      "Ġorigin": 7633,
      "UBL": 7634,
      "Ġà¤¸à¤¸": 7635,
      "ĠInvest": 7636,
      "Ġtow": 7637,
      "Ġexistence": 7638,
      "ĠWrit": 7639,
      "Ġvks": 7640,
      "ï¿½;": 7641,
      "Ġà¨īà¨²à¨Ł": 7642,
      "Ġà¨¸à¨Ĺà¨Ĩ": 7643,
      "Ġē": 7644,
      "à¨¸à¨Ĩ": 7645,
      "à¤Ĺà¤Īà¤¥": 7646,
      "à¬¼": 7647,
      "ops": 7648,
      "ĠAgricultural": 7649,
      "à´¯à´®à´¤": 7650,
      "Ġamendments": 7651,
      "Ġrelates": 7652,
      "à¨¤à¨¹": 7653,
      "Ġjkt": 7654,
      "ê¯į": 7655,
      "à¤ıà¤ª": 7656,
      "Ġgenerally": 7657,
      "ilk": 7658,
      "ĠMotor": 7659,
      "ĠProfess": 7660,
      "Ġmuch": 7661,
      "Ġeq": 7662,
      "Ġqualified": 7663,
      "leph": 7664,
      "Ġpunished": 7665,
      "ĠCON": 7666,
      "Ġãħ": 7667,
      "Ġbear": 7668,
      "Comp": 7669,
      "ĠOb": 7670,
      "Ministry": 7671,
      "rieved": 7672,
      "Èĳ": 7673,
      ")âĢį": 7674,
      "AV": 7675,
      "ĠUN": 7676,
      "Ġerror": 7677,
      "azard": 7678,
      "Ġdealt": 7679,
      "1993": 7680,
      "à¤¨à¤£": 7681,
      "Ġà¤ķà¤ª": 7682,
      "à¤¤à¤°à¤¹à¤ķ": 7683,
      "à¤°à¤ļ": 7684,
      "Ġà¦Ľ": 7685,
      "Ġborrow": 7686,
      "Ġrecommendation": 7687,
      "Ġpointed": 7688,
      "ĠUp": 7689,
      "Ñĩ": 7690,
      "Ġwall": 7691,
      "etro": 7692,
      "Ġà¤ħà¤²à¤Ĺ": 7693,
      "Ġpot": 7694,
      "ĠãĢ": 7695,
      "à¤¹à¤£": 7696,
      "Ġà¦¬ÒĿà¦¬": 7697,
      "Ġinjury": 7698,
      "à¨¸à¨¹": 7699,
      "à¨ļà¨Ĩ": 7700,
      "Ġ61": 7701,
      "Ġresidential": 7702,
      "à²¤à²¤": 7703,
      "Ġsuffer": 7704,
      "Ġà¨®à¨ľ": 7705,
      "à¤¤à¤ķà¤°à¤¤": 7706,
      "à°µà°°": 7707,
      "à¨¬à¨Ĩà¨¨": 7708,
      "Ġbudget": 7709,
      "Ġcess": 7710,
      "rigation": 7711,
      "à¨¾à¨¿à©Ģ": 7712,
      "ĠÈ": 7713,
      "Ġà¬¨àŃŁ": 7714,
      "Ġoccupation": 7715,
      "Ġwa": 7716,
      "Ġapplies": 7717,
      "quisition": 7718,
      "Ëĺ": 7719,
      "lying": 7720,
      "à²Ĺà²³à²¨": 7721,
      "à¤µà¤ľ": 7722,
      "ĠÂ±": 7723,
      "à¨ļà¨£": 7724,
      "Ġà´¸à´®": 7725,
      "Ġach": 7726,
      "harm": 7727,
      "gy": 7728,
      "ĠRem": 7729,
      "Ġpropri": 7730,
      "Ġdest": 7731,
      "ISC": 7732,
      "RAN": 7733,
      "Ġreceipts": 7734,
      "á±ļá±": 7735,
      "1963": 7736,
      "Ġconstructed": 7737,
      "Ġrestricted": 7738,
      "ĠÄ¥": 7739,
      "à¦¬à¦ļà¦¨": 7740,
      "lease": 7741,
      "Ġà®£": 7742,
      "à¤¨à¤ľ": 7743,
      "à¦Ľà¦¨": 7744,
      "Ġà¤¨à¤Ĺà¤°": 7745,
      "Ġà¨¸à¨®à¨°à¨¥à¨¨": 7746,
      "By": 7747,
      "\"à¥¤": 7748,
      "Ġà¤¹à¤¸": 7749,
      "Ġàª¡": 7750,
      "ĠKashmir": 7751,
      "ĠĠ": 7752,
      "qj": 7753,
      "cont": 7754,
      "EX": 7755,
      "ero": 7756,
      "Ġà¤°à¤°": 7757,
      "Ġinfrastructure": 7758,
      "MB": 7759,
      "Ġviz": 7760,
      "Ġà§«": 7761,
      "Ġarrangement": 7762,
      "que": 7763,
      "Ġwhy": 7764,
      "$ï¿½ï¿½ï¿½": 7765,
      "Ġstart": 7766,
      "Director": 7767,
      "grieved": 7768,
      "ION": 7769,
      "fd": 7770,
      "xi": 7771,
      "à¨Ĳà¨²": 7772,
      "PÃģ": 7773,
      "Ġà¨ĳ": 7774,
      "ĠBl": 7775,
      "Ġul": 7776,
      "àªĥ": 7777,
      "Ġfalling": 7778,
      "Ġà¨ªà¨²": 7779,
      "Ġpurchas": 7780,
      "Ġpeople": 7781,
      "ilitation": 7782,
      "à¥ĩà¤¿à¤¾": 7783,
      "Ġled": 7784,
      "ĠSenior": 7785,
      "CC": 7786,
      "à¦ªà¦²à¦ķ": 7787,
      "Ġà¤ħà¤¸à¤²": 7788,
      "ï¿½ï¿½ï¿½ï¿½ï¿½ï¿½ï¿½ï¿½ï¿½ï¿½ï¿½ï¿½ï¿½": 7789,
      "ÃĹ": 7790,
      "Â¦": 7791,
      "ÄĻ": 7792,
      "Ġà¤ķà¤Ł": 7793,
      "à¤ıà¤«": 7794,
      "Ġsetting": 7795,
      "Ġscrutin": 7796,
      "Dis": 7797,
      "Ġexpedient": 7798,
      "à¤¿ï¿½à¤¾": 7799,
      "onal": 7800,
      "PR": 7801,
      "1996": 7802,
      "Ġdrain": 7803,
      "ype": 7804,
      "Ġïĥł": 7805,
      "Ġinterests": 7806,
      "ê¯Ŀ": 7807,
      "enti": 7808,
      "rj": 7809,
      "ÃĢÃ¦": 7810,
      "Ġdistance": 7811,
      "Ġjoin": 7812,
      "regulation": 7813,
      "à¨ľà¨¸à¨Łà¨°": 7814,
      "Ġconsiders": 7815,
      "Ġrecommended": 7816,
      "à¤ħà¤µà¤§": 7817,
      "Ġincorpor": 7818,
      "ĠMis": 7819,
      "à±ģ,": 7820,
      "Ġ[(": 7821,
      "à¨²à¨ĸ": 7822,
      "ades": 7823,
      "Ġaffairs": 7824,
      "ĠTechnical": 7825,
      "Ġà¨īà¨¤à¨ª": 7826,
      "IAL": 7827,
      "ĠTransfer": 7828,
      "ĠSabha": 7829,
      "Ġsituation": 7830,
      "amb": 7831,
      "à²²à²²": 7832,
      "Ġà¨Ĺà¨°": 7833,
      "ydro": 7834,
      "ĠCity": 7835,
      "Ġmodified": 7836,
      "tig": 7837,
      "à°¤à°¨": 7838,
      "Ġillegal": 7839,
      "Ġreduced": 7840,
      "ĠFood": 7841,
      "à¨¸à¨§": 7842,
      "ĠTraining": 7843,
      "Ġeconomic": 7844,
      "à¤ķà¤Ł": 7845,
      "Ġproportion": 7846,
      "àª¦àª¨": 7847,
      "ĠâĢĵâĢĵ": 7848,
      "Ġcollege": 7849,
      "à¨¬à¨ķ": 7850,
      "Ġà¤ķà¤¦": 7851,
      "à¤¼à¥ĩ": 7852,
      "Ġà¨£": 7853,
      "à¨¤à¨¸": 7854,
      "à¤¾ï¿½à¤¾": 7855,
      "Ġresponsibility": 7856,
      "ĠDesign": 7857,
      "ĠÃĬ": 7858,
      "Ġheight": 7859,
      "ĠVol": 7860,
      "ablishment": 7861,
      "ĠInstitutions": 7862,
      "ĠAssociation": 7863,
      "ĠSelection": 7864,
      "àµ½à´ª": 7865,
      "à¦¶à¦·": 7866,
      "ĠÂªÃĢÃĦ": 7867,
      "ĠIndustries": 7868,
      "à¦°à¦ª": 7869,
      "imachal": 7870,
      "ĠPolicy": 7871,
      "Ġseats": 7872,
      "Ġchanges": 7873,
      "à¦ĥ": 7874,
      "à¨¤à¨µà¨ª": 7875,
      "Ġà¨Ĳà¨¨": 7876,
      "à¤ĸà¤¨": 7877,
      "Ġrecognized": 7878,
      "Ġsearch": 7879,
      "à¤§à¤¯": 7880,
      "VÂªh": 7881,
      "cill": 7882,
      "kar": 7883,
      "Ġà¨¿à©Ī,": 7884,
      "Ġà®ħà®µà®°": 7885,
      "illed": 7886,
      "Ġaverage": 7887,
      "Ġrestrictions": 7888,
      "Ġproposal": 7889,
      "jks": 7890,
      "ĠRent": 7891,
      "à°¨à°²": 7892,
      "Ġadjudic": 7893,
      "Ġ2002": 7894,
      "ÂºÃī": 7895,
      "à²°à²¦": 7896,
      "Ġsources": 7897,
      "à¤°à¤¨à¤¹": 7898,
      "Ġreceiving": 7899,
      "GS": 7900,
      "Ġdoing": 7901,
      "Ġexception": 7902,
      "ê¯Ń": 7903,
      "Ġgrants": 7904,
      "Ġà´¡": 7905,
      ",âĢį": 7906,
      "Ġdifference": 7907,
      "à«ĭ,": 7908,
      "à¤Īà¤¸": 7909,
      "ĠVII": 7910,
      "à¤²à¤ª": 7911,
      "nk": 7912,
      "Ġà¨«à¨°à¨®": 7913,
      "Ġïĥ§": 7914,
      "à´¤à´¤": 7915,
      "ĠPur": 7916,
      "Ġàªľàª®": 7917,
      "à¦¬à¦¦à¦¨à¦ķ": 7918,
      "à¦¦Îº": 7919,
      "ony": 7920,
      "Ġneeds": 7921,
      "ĠLal": 7922,
      "Ġrespon": 7923,
      "Ġtkus": 7924,
      "Ġàª¸àª¤": 7925,
      "mittees": 7926,
      "Ġtermination": 7927,
      "ĠTrade": 7928,
      "Ġpage": 7929,
      "ĠàªªàªĽ": 7930,
      "Ġåµ": 7931,
      "eel": 7932,
      "Ġvuql": 7933,
      "onditions": 7934,
      "Ġpetitions": 7935,
      "Ġ67": 7936,
      "Ġdig": 7937,
      "à¨ªà¨²": 7938,
      "àµ½à´µ": 7939,
      "DIC": 7940,
      "Ġà¨ķà¨ķ": 7941,
      "Ġà¨¤à¨ķ": 7942,
      "gisters": 7943,
      "Insp": 7944,
      "ĠProgram": 7945,
      "Ġmanufacturing": 7946,
      "illa": 7947,
      "omet": 7948,
      "spective": 7949,
      "á¾±": 7950,
      "Ġà¤ķà¤¯": 7951,
      "cell": 7952,
      "Ġà¨ĺà¨°": 7953,
      "Ġdeduction": 7954,
      "Ġcode": 7955,
      "holder": 7956,
      "idents": 7957,
      "à¤·à¤°": 7958,
      "2013": 7959,
      "ource": 7960,
      "à¤°à¤µà¤°": 7961,
      "ÈŃ": 7962,
      "Ġprocessing": 7963,
      "àµĥ": 7964,
      "+ï¿½ï¿½": 7965,
      "Ġgratuity": 7966,
      "Ġà¦ķà§°": 7967,
      "Fkok": 7968,
      "Ġdisciplinary": 7969,
      "Ġresults": 7970,
      "raft": 7971,
      "à¤ĸà¤ķ": 7972,
      "Ġà°Ĥ": 7973,
      "Ġexclusive": 7974,
      "ĠNagar": 7975,
      "ĠÎŃà¦®": 7976,
      "unior": 7977,
      "ĠPR": 7978,
      "à¤Łà¤¯": 7979,
      "Ġprojects": 7980,
      "MS": 7981,
      "Ġà§§": 7982,
      "Ġturnover": 7983,
      "Ġà¤§à¤¨": 7984,
      "Ġï¿½à¥Ģ": 7985,
      "Ġstudent": 7986,
      "Free": 7987,
      "Ġaggregate": 7988,
      "Ġgoverned": 7989,
      "omestic": 7990,
      "Ġik": 7991,
      "à¦¬à¦°": 7992,
      "Ġdisqual": 7993,
      "à¨¦à¨Ī": 7994,
      "Ġà¨ľà¨¨à¨°à¨²": 7995,
      "Ġcompound": 7996,
      "Ġquarter": 7997,
      "à©Ĩ": 7998,
      "ĠàŃĦ": 7999,
      "ĠØ§ÛĮ": 8000,
      "Ġà¤ķà¤¨": 8001,
      "xhA": 8002,
      "sok": 8003,
      "Ø®": 8004,
      "ĠNar": 8005,
      "ĠïĥĢ": 8006,
      "Ġrecon": 8007,
      "sensitive": 8008,
      "ÑĹ": 8009,
      "à¦¶à¦°": 8010,
      "ĠUrban": 8011,
      "Ġà¨ıà¨ľ": 8012,
      "ghter": 8013,
      "Ġcriteria": 8014,
      "ofo": 8015,
      "........................": 8016,
      "à¤¤à¤¬": 8017,
      "à°ļà°¡": 8018,
      "Ġà¤µà¤µ": 8019,
      "Ġàªµàª§": 8020,
      "à®°à®ļ": 8021,
      "Ġexecutive": 8022,
      "Ġalways": 8023,
      "2024": 8024,
      "Ġoffices": 8025,
      "kks": 8026,
      "à³ģ.": 8027,
      "khand": 8028,
      "Ġselected": 8029,
      "à¤Ĺà¤¨": 8030,
      "where": 8031,
      "300": 8032,
      "Ġdefence": 8033,
      "ware": 8034,
      "ĠJammu": 8035,
      "..............": 8036,
      "Im": 8037,
      "Ġsq": 8038,
      "Ï¡": 8039,
      "Âģ": 8040,
      "à¤ıà¤ļ": 8041,
      "Ġballot": 8042,
      "Vs": 8043,
      "ANA": 8044,
      "Ġresources": 8045,
      "Ġdqy": 8046,
      "Ġimmediate": 8047,
      "Ġsheet": 8048,
      "hips": 8049,
      "Ġstanding": 8050,
      "à¤ĩà¤¸à¤¨": 8051,
      "à¨Ĩà¨ªà¨£": 8052,
      "Ġsector": 8053,
      "à«ĢàªĤ": 8054,
      "à«ĭàªĤ": 8055,
      "àªķàª¤": 8056,
      ".......": 8057,
      "Ġlegislative": 8058,
      "ĠPW": 8059,
      "âĢļ": 8060,
      "Ġaltern": 8061,
      "Ac": 8062,
      "Ġ1922": 8063,
      "plus": 8064,
      ",]": 8065,
      ".'": 8066,
      "Ġvotes": 8067,
      "urring": 8068,
      "Ġunable": 8069,
      "Ġà¦ıà¦®à¦¨": 8070,
      "Ġà¤Ĩà¤®": 8071,
      "à¤Ńà¤ķ": 8072,
      "aintenance": 8073,
      "Ġà¨ªà¨°à¨Ń": 8074,
      "Ġà¨ħà¨ķà¨¤": 8075,
      "Ġlegislature": 8076,
      "ĠCalc": 8077,
      "ists": 8078,
      "ĠïĤ§": 8079,
      "à¦¨à¦ķ": 8080,
      "ont": 8081,
      "à¤Ķà¤°à¤ª": 8082,
      "à¤¾)": 8083,
      "ÂªÃĢÃ": 8084,
      "Ġawarded": 8085,
      "Ġbenefic": 8086,
      "lo": 8087,
      "Ġà¨ĩà¨¹à¨¨": 8088,
      "Shri": 8089,
      "unction": 8090,
      "ĠIS": 8091,
      "Ġ110": 8092,
      "anged": 8093,
      "Ġappearing": 8094,
      "à¨¾à¨Ĥà¥¤": 8095,
      "ests": 8096,
      "Äł": 8097,
      "Ġoperating": 8098,
      "à¨¨à¨ķà¨°à¨¤": 8099,
      "ĠÄºà¦¦": 8100,
      "Ġ2007": 8101,
      "Ġà®µà®´à®ķ": 8102,
      "Ġconfer": 8103,
      "Ġremed": 8104,
      "à¬ł": 8105,
      "Ġinvoice": 8106,
      "Ġuniversity": 8107,
      "ĠProtection": 8108,
      "Ġà´İà´¤": 8109,
      "Ġà°īà°¨": 8110,
      "Ġsup": 8111,
      "Ġà¨¤à¨¬": 8112,
      "à³Ĩà³ķ": 8113,
      "à¤ıà¤ķà¤¸": 8114,
      "Ġconstrued": 8115,
      "Ġanimal": 8116,
      "Ġdirector": 8117,
      "ĠForeign": 8118,
      "ĠSer": 8119,
      "Ġ2008": 8120,
      "à¨¦à¨°à¨Ń": 8121,
      "Ġthemselves": 8122,
      "Ġsto": 8123,
      "ticulars": 8124,
      "UÃī": 8125,
      "PO": 8126,
      "à¤ľà¤¸à¤®": 8127,
      "Application": 8128,
      "Ġclassification": 8129,
      "Ġtable": 8130,
      "Secretary": 8131,
      "Ġprefer": 8132,
      "ĠvFkok": 8133,
      "ĠgSa": 8134,
      "ĠPoll": 8135,
      "upon": 8136,
      "Ġ~~": 8137,
      "à¤¬à¤ķ": 8138,
      "à¤°à¤ķà¤°": 8139,
      "resident": 8140,
      "àª¤àª°": 8141,
      "aboratory": 8142,
      "sections": 8143,
      "Ġ1944": 8144,
      "utta": 8145,
      "Ġmany": 8146,
      "ï¿½ï¿½,": 8147,
      "Ġcultiv": 8148,
      "Ġreti": 8149,
      "Ġpasseng": 8150,
      "Ġurged": 8151,
      "ternational": 8152,
      "Ġà¨¹à¨¸": 8153,
      "ĠSocieties": 8154,
      "ĠValue": 8155,
      "NA": 8156,
      "yf": 8157,
      "Ġlocated": 8158,
      "Chapter": 8159,
      "Commission": 8160,
      "Ġstri": 8161,
      "Ġquot": 8162,
      "Ġcontracts": 8163,
      "Ġindicate": 8164,
      "Ġproceeds": 8165,
      "aces": 8166,
      "ctive": 8167,
      "Ġà¨¤à¨¬à¨¦": 8168,
      "Ġbail": 8169,
      "ĠEÃ²": 8170,
      "à¨Łà¨¡": 8171,
      "Ġdues": 8172,
      "TA": 8173,
      "oned": 8174,
      "Ġcoming": 8175,
      "Ġforthwith": 8176,
      "ESH": 8177,
      "Ġcontem": 8178,
      "Ġcommunity": 8179,
      "istent": 8180,
      "Ġà¤¶à¤°": 8181,
      "Ġà¨ĩà¨¸à¨¨": 8182,
      "Ġ120": 8183,
      "vail": 8184,
      "ĠMadhya": 8185,
      "itto": 8186,
      "tile": 8187,
      "Ġtransp": 8188,
      "Ġtri": 8189,
      "à¨¦à¨ķ": 8190,
      "à¤¨à¤¬": 8191,
      "Ġserious": 8192,
      "110": 8193,
      "PS": 8194,
      "District": 8195,
      "àŃĥ": 8196,
      "à±į.": 8197,
      "Ġà¤¹à¤ı": 8198,
      "Ġà¨ħà¨ķ": 8199,
      "'ï¿½ï¿½ï¿½": 8200,
      "à²¿à²¿": 8201,
      "Ġarise": 8202,
      "ULES": 8203,
      "1995": 8204,
      "ĠEX": 8205,
      "à±įà±ĭ": 8206,
      "à®Łà®®": 8207,
      "END": 8208,
      "Ġrelied": 8209,
      "âĢ¦âĢ¦âĢ¦âĢ¦âĢ¦": 8210,
      "Ġrecip": 8211,
      "Ġà¨®à¨¸": 8212,
      "ĠOut": 8213,
      "urb": 8214,
      "Ġaway": 8215,
      "Ġordered": 8216,
      "àµ¼à´ª": 8217,
      "ĠSessions": 8218,
      "à¨¡à¨µ": 8219,
      ">**": 8220,
      "Ġpurchased": 8221,
      "à¤§à¤°": 8222,
      "isher": 8223,
      "àª¾.": 8224,
      "ĠFire": 8225,
      "Ġà¦Ĩà¦®à¦°": 8226,
      "Rem": 8227,
      "ĠPort": 8228,
      "à¤²à¤°": 8229,
      "Ġpenal": 8230,
      "Ġforfe": 8231,
      "Ç©": 8232,
      "Ġïĥĳ": 8233,
      "New": 8234,
      "Ġversion": 8235,
      "È½": 8236,
      "à¤Ĺà¤£": 8237,
      "Ġà¤®à¤¤": 8238,
      "Ġold": 8239,
      "conduct": 8240,
      "Ġeas": 8241,
      "ĠContract": 8242,
      "ĠàŃģ": 8243,
      "ĠHome": 8244,
      "dy": 8245,
      "à¤¸à¤ª": 8246,
      "Ġ76": 8247,
      "Ġà¨°à¨¨": 8248,
      "Ġsupervision": 8249,
      "Ġcontractor": 8250,
      "à¨¹à¨®à¨¤": 8251,
      "1991": 8252,
      "harkhand": 8253,
      "à¤ĩà¤¸à¤ª": 8254,
      "àªĪàªı": 8255,
      "Ġaccru": 8256,
      "à¥įà¤¿": 8257,
      "ĠTel": 8258,
      "à¦°à¦®": 8259,
      "àª¨àª®": 8260,
      "Ġcy": 8261,
      "ĠPeriod": 8262,
      "Ġ''": 8263,
      "areh": 8264,
      "****": 8265,
      "Ġà¨ħà¨®": 8266,
      "Ġïģļïģ": 8267,
      "à¨īà¨¸": 8268,
      "Ġpractical": 8269,
      "à¤ħà¤¤": 8270,
      "Ġteaching": 8271,
      "ĠCommercial": 8272,
      "olition": 8273,
      "Ġà²Ń": 8274,
      "Ġoperator": 8275,
      "ĠMAN": 8276,
      "Ġdispl": 8277,
      "TO": 8278,
      "à¤¦à¤¦": 8279,
      "à¤Ĺà¤µ": 8280,
      "à«¯": 8281,
      "ĠQual": 8282,
      "à¨Ĺà¨®": 8283,
      "Ġvar": 8284,
      "Ġowned": 8285,
      "Ġà¤ıà¤«": 8286,
      "2000": 8287,
      "Ġpast": 8288,
      "We": 8289,
      "Ġ1999": 8290,
      "ĠNote": 8291,
      "tivity": 8292,
      "Ġiw": 8293,
      "Ġvirtue": 8294,
      "à¤¨à¤ķà¤°à¤¨": 8295,
      "ĠNag": 8296,
      "Ġà´®à´±": 8297,
      "ĠSignature": 8298,
      "Ġreduction": 8299,
      "Ġlimitation": 8300,
      "employ": 8301,
      "Ġlfefr": 8302,
      "\"ï¿½ï¿½ï¿½": 8303,
      "encing": 8304,
      "á±¤": 8305,
      "Ġà¤¶à¤ķà¤¤": 8306,
      "Is": 8307,
      "enu": 8308,
      "unication": 8309,
      "Ġsupplier": 8310,
      "Ġsatisfaction": 8311,
      "àŃĩà¬¿": 8312,
      "OC": 8313,
      "Ġpropos": 8314,
      "ĠBody": 8315,
      "à¤ħà¤µ": 8316,
      "ĠvfHk": 8317,
      "ĠïĤª": 8318,
      "TR": 8319,
      "Em": 8320,
      "à¨¿à¨¿": 8321,
      "Ġframe": 8322,
      "Ġserial": 8323,
      "olitical": 8324,
      "à¦¬à¦¨": 8325,
      "à¤Łà¤¸": 8326,
      "hat": 8327,
      "1988": 8328,
      "ĠAccountant": 8329,
      "(ï¿½ï¿½ï¿½": 8330,
      "5555": 8331,
      "Ġà¬¬àŃŁ": 8332,
      "Ġmlds": 8333,
      "Ġdescribed": 8334,
      "ĠPress": 8335,
      "part": 8336,
      "Ġà¤ķà¤¤": 8337,
      "aul": 8338,
      "Ġmeter": 8339,
      "Ġmemorandum": 8340,
      "Ġfraud": 8341,
      "Ġsubsid": 8342,
      "Ġii": 8343,
      "oration": 8344,
      "àµģà´Ĥ,": 8345,
      "ĠEv": 8346,
      "Ġlsok": 8347,
      "Ġcancellation": 8348,
      "Ġà¤īà¤ªà¤°": 8349,
      "2012": 8350,
      "which": 8351,
      "ĠAppeals": 8352,
      "Ġsubsequently": 8353,
      "fficiency": 8354,
      "Ġpercentage": 8355,
      "off": 8356,
      "ĠHousing": 8357,
      "Ġplead": 8358,
      "Ġaggrieved": 8359,
      "Ġàªħàª¸": 8360,
      "ams": 8361,
      "sd": 8362,
      "Ġàªıàª¸": 8363,
      "umbai": 8364,
      "ĠAmount": 8365,
      "ĠAN": 8366,
      "Ġwife": 8367,
      "ila": 8368,
      "ĠlkFk": 8369,
      "Ġinstance": 8370,
      "Ġclar": 8371,
      "Ġ86": 8372,
      "à²¦à²¨": 8373,
      "Ġincons": 8374,
      "ĠFurther": 8375,
      "tation": 8376,
      "à¤ķà¤°à¤£à¤ķ": 8377,
      "ï¿½-": 8378,
      "leum": 8379,
      "à¤µà¤µà¤°à¤£": 8380,
      "Ġboundary": 8381,
      "Ġinitial": 8382,
      "Regulation": 8383,
      "reat": 8384,
      "do": 8385,
      "Ġstrength": 8386,
      "Ġpractic": 8387,
      "ĠPrin": 8388,
      "1976": 8389,
      "ĠïĤĲ": 8390,
      "1992": 8391,
      "Ġcancelled": 8392,
      "à§ĥà¦¿": 8393,
      "ĠÂ£": 8394,
      "Ġtests": 8395,
      "Ġïĥ£": 8396,
      "orter": 8397,
      "Ġfod": 8398,
      "à¨°à¨°": 8399,
      "Ġnoted": 8400,
      "Ġsust": 8401,
      "à¤¿ē": 8402,
      "ĠïĢ¶ïĢ¬": 8403,
      "tk": 8404,
      "ĠâĢĶ(": 8405,
      "Ġà¦¬ÒĿÎĿÐħ": 8406,
      "ĠWhile": 8407,
      "conomic": 8408,
      "Î»": 8409,
      "ÃĨ": 8410,
      "ĠTreasury": 8411,
      "ircraft": 8412,
      "ĠPRA": 8413,
      "Ġtransmission": 8414,
      "à©ĩ.]": 8415,
      "Ġradi": 8416,
      "à¨¨à¨£": 8417,
      "uous": 8418,
      "five": 8419,
      "ê¯Į": 8420,
      "à¨µà¨¹": 8421,
      "atever": 8422,
      "à¤Ķà¤°à¤µ": 8423,
      "à¤¿ï¿½âĢį": 8424,
      "2015": 8425,
      "à¨µà¨µà¨¸à¨¥": 8426,
      "ĠDated": 8427,
      "Ġundertake": 8428,
      "etroleum": 8429,
      "ĠHimachal": 8430,
      "1986": 8431,
      "Ġthereby": 8432,
      "à¨ħà¨²": 8433,
      "Ġà¨ħà¨«": 8434,
      "Ġwherever": 8435,
      "Ġà´īà´ª": 8436,
      "à¦¹à¦£": 8437,
      "à¤Ķ": 8438,
      "Ġà¦¹à¦ĵà§Ł": 8439,
      "à¨¡à¨¬à¨²à¨¯": 8440,
      "Ġnorms": 8441,
      "ĠÎ¯": 8442,
      "kdj": 8443,
      "usal": 8444,
      "Ġà´ķà´£": 8445,
      "ĠFl": 8446,
      "à§İ": 8447,
      "opy": 8448,
      "Ġà¨¹à¨¹": 8449,
      "reciation": 8450,
      "Ġàªīàªªàª¯": 8451,
      "amation": 8452,
      "Ġà°Ĵà°ķ": 8453,
      "à©ĭà¨Ĥ,": 8454,
      "Ġprogrammes": 8455,
      "à´¯à´µà´¸": 8456,
      "àªī": 8457,
      "Ġauction": 8458,
      "Ġmov": 8459,
      "Ġà²Ĩà²¦": 8460,
      "Ġuke": 8461,
      "Ġendor": 8462,
      "anced": 8463,
      "ftL": 8464,
      "ïģļïģºïģ§": 8465,
      "ula": 8466,
      "1990": 8467,
      "à±įà°Ĥ": 8468,
      "Ġà¬¥": 8469,
      "oring": 8470,
      "ettlement": 8471,
      "Ġà¤Ĩà¤¯à¤ķà¤°": 8472,
      "VE": 8473,
      "rish": 8474,
      "Îºà¦ķ": 8475,
      "ĠSl": 8476,
      "Ġà¤¨à¤¨": 8477,
      "ÃĢÃĦÃĽ": 8478,
      "Ġhelp": 8479,
      "Acc": 8480,
      "Place": 8481,
      "à´¯à´¨": 8482,
      "à¤Ķà¤°à¤ħà¤¨": 8483,
      "à¦ĸà¦¤": 8484,
      "á±®á±": 8485,
      "1959": 8486,
      "Non": 8487,
      "//": 8488,
      "à¦Ĺà¦°": 8489,
      "ones": 8490,
      "ÃºÃī": 8491,
      "Ġ][": 8492,
      "à¨Łà¨ķ": 8493,
      "Ġcredited": 8494,
      "aren": 8495,
      "Ďà¤¾": 8496,
      "à¦¤ÒĿ": 8497,
      "Ġà¨ħà¨°à©Ľ": 8498,
      ":ï¿½": 8499,
      "Ġsignific": 8500,
      "à¤¸à¤®à¤°": 8501,
      "Ġrequiring": 8502,
      "ï¿½ï¿½à¤¾": 8503,
      "Ġmarriage": 8504,
      "à¨¸à¨¬": 8505,
      "Ïķà¦®": 8506,
      "yer": 8507,
      "Ġweek": 8508,
      "Ġà¬§": 8509,
      "Ġmo": 8510,
      "Ġequity": 8511,
      "Ġà¨°à¨ľà¨¸": 8512,
      "such": 8513,
      "ĠÏķà¦ķ": 8514,
      "aps": 8515,
      "Ġpo": 8516,
      "Ġfindings": 8517,
      "ĠPB": 8518,
      "âĢľ(": 8519,
      "à´µà´ķ": 8520,
      "Ġknow": 8521,
      "Ġïĥ¦": 8522,
      "Ġverified": 8523,
      "/ï¿½ï¿½": 8524,
      "Ġexempt": 8525,
      "à©Ģ;": 8526,
      "Prov": 8527,
      "Ġmineral": 8528,
      "à¤·à¤·": 8529,
      "à¤ľà¤§à¤ķ": 8530,
      "ened": 8531,
      "SION": 8532,
      "à¨Ĳà¨¨": 8533,
      "Ġchannel": 8534,
      "à¨Ĩà¨µà¨ľ": 8535,
      "Ġgl": 8536,
      "Ġsew": 8537,
      "Ġthings": 8538,
      "Ġconstitutional": 8539,
      "à¨¯à¨Ł": 8540,
      "Ġà¤Ĩà¤¨": 8541,
      "liminary": 8542,
      "eh": 8543,
      "umbers": 8544,
      "Ġinformed": 8545,
      "Ġnk": 8546,
      "Ġacid": 8547,
      "Ġma": 8548,
      "ĠOthers": 8549,
      "à¬¨à¬°": 8550,
      "1985": 8551,
      "Ġà¤¸à¤¦à¤¸": 8552,
      "irit": 8553,
      "Ġï¿½à¥ĩï¿½": 8554,
      "________________________________________________________________": 8555,
      "outh": 8556,
      "à¨Ĩà¨ªà¨ķ": 8557,
      "Current": 8558,
      "Ik": 8559,
      "Ġdates": 8560,
      "Ġissuing": 8561,
      "ĠAtt": 8562,
      "Serv": 8563,
      "Ġà´ħà´Ł": 8564,
      "ĠShort": 8565,
      "Ġfc": 8566,
      "oo": 8567,
      "ĠOrissa": 8568,
      "Ġbase": 8569,
      "Ġapproach": 8570,
      "à¬ķà¬¬": 8571,
      "à¤¸à¤®à¤ķ": 8572,
      "Ġthing": 8573,
      "Ġà¦ľà¦¨ÆŁ": 8574,
      "ïģļïĥ": 8575,
      "à¤°à¤¥": 8576,
      "FF": 8577,
      "Ġhot": 8578,
      "Ġlegislation": 8579,
      "aluk": 8580,
      "á¾«": 8581,
      "ĠEntry": 8582,
      "Ġlessee": 8583,
      "Ġrelations": 8584,
      "Ġbad": 8585,
      "Ġgranting": 8586,
      "âĢĻâĢĻ": 8587,
      "isite": 8588,
      "Ġcontents": 8589,
      "Ð³": 8590,
      "à´µà´¨": 8591,
      "à¨īà¨¦": 8592,
      "acc": 8593,
      "Ġà¨µà¨ľà¨¸": 8594,
      "nergy": 8595,
      "Ġmanufactured": 8596,
      "Short": 8597,
      "Ġpractition": 8598,
      "Ġà¦§à¦°": 8599,
      "mn": 8600,
      "à¤£à¤ª": 8601,
      "ĠProcess": 8602,
      "Ġconcession": 8603,
      "Ġhospital": 8604,
      "Ġàª¦àª°": 8605,
      "à¤īà¤ł": 8606,
      "Ġconsisting": 8607,
      "Ġà²ľ": 8608,
      "Ġà¨ħà¨®à¨²": 8609,
      "ĠEqu": 8610,
      "Ġà¨°à¨°à¨ª": 8611,
      "à¤ķà¤°à¤¸à¤ķà¤¤": 8612,
      "Ġà¸Ģà¸Ģà¸Ģà¸Ģ": 8613,
      "Ġáĥĸ": 8614,
      "à¤¶à¤¬": 8615,
      "erk": 8616,
      "ĠSamiti": 8617,
      "VIII": 8618,
      "indi": 8619,
      "ANCE": 8620,
      "Ġindustries": 8621,
      "à¨ķà¨°à¨¨à¨¦": 8622,
      "ï£": 8623,
      "Ġà¤¬à¤²": 8624,
      "Â³": 8625,
      "tions": 8626,
      "Ġmerit": 8627,
      "Ġ...": 8628,
      "ĠÂ«": 8629,
      "120": 8630,
      "à¦£Îº": 8631,
      "à®¯à®²": 8632,
      "1961": 8633,
      "ĠRed": 8634,
      "HERE": 8635,
      "ĠDepartments": 8636,
      "Ġà¨¸à¨®à¨Ŀà¨£": 8637,
      "ĠÙ°": 8638,
      "à¤ķà¤°à¤ķ": 8639,
      "aks": 8640,
      "Ġunderstand": 8641,
      "àª¾àªĤ,": 8642,
      "à¥¤\"": 8643,
      "uneration": 8644,
      "à®¤à®²": 8645,
      "Ġ79": 8646,
      "aking": 8647,
      "astic": 8648,
      "Ġfather": 8649,
      "Ġàª¹àªķ": 8650,
      "Ġ77": 8651,
      "Ġà¤®à¤¨": 8652,
      "à¨¤à¨¯": 8653,
      "Ġinterpretation": 8654,
      "Ġbuil": 8655,
      "à°ļà°¬à°¡": 8656,
      "Ġ99": 8657,
      "Ġabsol": 8658,
      "';": 8659,
      "URIS": 8660,
      "IVIL": 8661,
      "adio": 8662,
      "à¦¸Ð´": 8663,
      "Sr": 8664,
      "Ġintimation": 8665,
      "ĠAut": 8666,
      "à¨²à¨Ĺ": 8667,
      "iver": 8668,
      "Ġonline": 8669,
      "Cont": 8670,
      "Ġreleased": 8671,
      "rupt": 8672,
      "Ġvkns": 8673,
      "Ġïģ°": 8674,
      "Ġtesting": 8675,
      "Ġ1940": 8676,
      "ctor": 8677,
      "Ġtra": 8678,
      "ĠScience": 8679,
      "Ġà¨¨à¨ı": 8680,
      "à¨¾à¨¿à¨¾à¨Ĥ": 8681,
      "Ġinstituted": 8682,
      "Ġbet": 8683,
      "à©Ģ'": 8684,
      "Ġkeeping": 8685,
      "alaya": 8686,
      "Ġlisted": 8687,
      "ĠÃģ": 8688,
      "Ġ84": 8689,
      "Ġincidental": 8690,
      "Ġbroad": 8691,
      "ĠïĢ¡": 8692,
      "ķµ": 8693,
      "rep": 8694,
      "Ġïģĥ": 8695,
      "rr": 8696,
      "Ġà¤¶à¤¤": 8697,
      "Ġinterested": 8698,
      "ï£¿": 8699,
      "Ġà´ķà´®": 8700,
      "Ġadvice": 8701,
      "Ġà¬¿": 8702,
      "Ġà¤°à¤ķà¤®": 8703,
      "à¤°à¤°à¤ľ": 8704,
      "ĠCommittees": 8705,
      "ics": 8706,
      "1955": 8707,
      "à¬¼à¬¿": 8708,
      "Ġ111": 8709,
      "Ġà¤¬à¤¹": 8710,
      "ureau": 8711,
      "à¤ĩà¤²": 8712,
      "Ġtrees": 8713,
      "Â²": 8714,
      "Ġlocation": 8715,
      "tegrated": 8716,
      "Ġrepair": 8717,
      "à¤°à¤Ĺ": 8718,
      "à¤īà¤ķ": 8719,
      "à¤¤à¤ķà¤ķ": 8720,
      "ÃĢÃĨ": 8721,
      "Ġ`": 8722,
      "Ġpan": 8723,
      "Ġà¦¬ÆŁ": 8724,
      "Ġorganisation": 8725,
      "vÃĢÃĦÃĽ": 8726,
      "TIFICATION": 8727,
      "ĠTest": 8728,
      "ÅĽ": 8729,
      "à¨¨à¨°à¨®": 8730,
      "à¦²ÒĿ": 8731,
      "comp": 8732,
      "Ġefficient": 8733,
      "Ġà¤ıà¤ļ": 8734,
      "ĠPayment": 8735,
      "Ġbearing": 8736,
      "Ġreligious": 8737,
      "Ġundertaken": 8738,
      "Ġnotices": 8739,
      "à²°à²£": 8740,
      "Ġà¤ħà¤¬": 8741,
      "Ġmid": 8742,
      "rief": 8743,
      "ampl": 8744,
      "Ġmeasure": 8745,
      "à¨Ĥà¥¤": 8746,
      "à¤ªà¤¹": 8747,
      "ê¯Ĥ": 8748,
      "Ġuser": 8749,
      "Ġcertificates": 8750,
      "à¨¦à¨°à¨¸": 8751,
      "emption": 8752,
      "Ġspecifically": 8753,
      "ĠïģĮ": 8754,
      "Ġà¨Ĩà¨°à¨¡à¨°": 8755,
      "Ġdjrs": 8756,
      "Éħ": 8757,
      "Ġà¨ªà¨°à¨¬": 8758,
      "Ġappli": 8759,
      "Ġaffirm": 8760,
      "Ġinstruments": 8761,
      "Ġpromoted": 8762,
      "mination": 8763,
      "ĠInserted": 8764,
      "Ġmanufacturer": 8765,
      "àªªàª¨": 8766,
      "Ġstill": 8767,
      "order": 8768,
      "à¨ĩà¨ĩ": 8769,
      "Ġà©Ħ": 8770,
      "HO": 8771,
      "When": 8772,
      "150": 8773,
      "à©ĭ-": 8774,
      "Ġrecognition": 8775,
      "Ġbegin": 8776,
      "ĠÂ¼1Â½": 8777,
      "gular": 8778,
      "Ġtakes": 8779,
      "THOR": 8780,
      "oman": 8781,
      "à¤¡à¤°": 8782,
      "ARD": 8783,
      "!!": 8784,
      "Ġmedic": 8785,
      "Ġbelieve": 8786,
      "1980": 8787,
      "Ġentertain": 8788,
      "Ġàªĩ": 8789,
      "à¨µà¨Ł": 8790,
      "ributed": 8791,
      "ourism": 8792,
      "Ġrepresentatives": 8793,
      "Ġà«§à«¯à««": 8794,
      "àª®àª£": 8795,
      "igned": 8796,
      "Ġïģĺïģļ": 8797,
      "à¨¬à¨¹": 8798,
      "à¦¹à¦¤": 8799,
      "fjr": 8800,
      "à¨¦à¨Ĩ": 8801,
      "Ä¦": 8802,
      "2014": 8803,
      "ĠSEC": 8804,
      "Ġà¤¦à¤¶": 8805,
      "Ġexpressed": 8806,
      "ĠDirectors": 8807,
      "Ġàª¨àªķ": 8808,
      "Ø´": 8809,
      "Ġà®Ł": 8810,
      "Ġheir": 8811,
      "Ġobjects": 8812,
      "Ġà´ħà´²": 8813,
      "ĠÃĹ": 8814,
      "ĠGOVT": 8815,
      "Ġnotes": 8816,
      "Ġaffili": 8817,
      "1987": 8818,
      "ĠØª": 8819,
      "Ġomission": 8820,
      "àªķàª®àª¨": 8821,
      "Ġserve": 8822,
      "Ġcomplied": 8823,
      "à¤ľà¤¦": 8824,
      "Ġà¨ľà¨¨à¨µà¨°": 8825,
      "à¨łà¨²": 8826,
      "Ġworkman": 8827,
      "ELHI": 8828,
      "Ġcommunicated": 8829,
      "Ġà¨ĩà¨¤à¨°": 8830,
      "oke": 8831,
      "ĠSri": 8832,
      "xr": 8833,
      "DICTION": 8834,
      "Ġforwarded": 8835,
      "Ph": 8836,
      "HAL": 8837,
      "Ġlap": 8838,
      "ĠlnL": 8839,
      "ï¿½ï¿½ï¿½ï¿½ï¿½ï¿½ï¿½ï¿½ï¿½ï¿½ï¿½ï¿½ï¿½ï¿½": 8840,
      "à¨ļà¨°": 8841,
      "Cer": 8842,
      "ĠGup": 8843,
      "àª¾,": 8844,
      "ĠSEBI": 8845,
      "Ġconfirmed": 8846,
      "Ġïĥĩ": 8847,
      "rec": 8848,
      "1989": 8849,
      "Ġextract": 8850,
      "Ġcease": 8851,
      "ĠSecret": 8852,
      "ĭà¤£": 8853,
      "ĠBO": 8854,
      "olidated": 8855,
      "à¤µà¤£": 8856,
      "Ġsolution": 8857,
      "Ġà´¦": 8858,
      "enders": 8859,
      "à¨ħà¨ľ": 8860,
      "ĠVehicles": 8861,
      "Ġåķµ": 8862,
      "à¤ıà¤µ": 8863,
      "ĠizkIr": 8864,
      "Ġà¨ªà¨°à¨¤": 8865,
      "à¤ıà¤¸à¤ķ": 8866,
      "Az": 8867,
      "ground": 8868,
      "Ġà¥ĭ": 8869,
      "à¨®à¨Ł": 8870,
      "Ġlawful": 8871,
      "à¦¬à¦·à§Ł": 8872,
      "Ġincorporated": 8873,
      "à¤ľà¤µ": 8874,
      "Ġà¨¬à¨²": 8875,
      "à¬ī": 8876,
      "âĢ¦âĢ¦âĢ¦âĢ¦âĢ¦âĢ¦": 8877,
      "ĠPanchayats": 8878,
      "reen": 8879,
      "400": 8880,
      "Ġagencies": 8881,
      "Ġviolation": 8882,
      "hÃī": 8883,
      "ulties": 8884,
      "ĠåµĹ": 8885,
      "Ġbur": 8886,
      "Ġpubl": 8887,
      "ĠAnnual": 8888,
      "Ġchargeable": 8889,
      "Comm": 8890,
      "Äº": 8891,
      "Ġïĥĭ": 8892,
      "Ġlat": 8893,
      "à¤¾ē": 8894,
      "Ġ92": 8895,
      "Ġà¨¸à¨ªà¨¸": 8896,
      "umed": 8897,
      "bsite": 8898,
      "Ġinfl": 8899,
      "Ġobservations": 8900,
      "Ġfacilit": 8901,
      "Ġà¨¶": 8902,
      "Ġbinding": 8903,
      "Ġaccur": 8904,
      "à¥ĩ;": 8905,
      "Ġlatter": 8906,
      "ÂªÃĢÃĦ": 8907,
      "ĠPromotion": 8908,
      "olved": 8909,
      "Ġà¨Ĩà¨ī": 8910,
      "ĠAh": 8911,
      "pped": 8912,
      "ĠLicen": 8913,
      "âĢįï¿½": 8914,
      "Ġ2004": 8915,
      "ĠCalcutta": 8916,
      "Ġfundamental": 8917,
      "vy": 8918,
      "Ġwhatever": 8919,
      "Ġà´µà´°": 8920,
      "Ġà¤¸à¤¨": 8921,
      "ĠSecurities": 8922,
      "ĠGSTR": 8923,
      "SCHEDULE": 8924,
      "à¤ľà¤Ł": 8925,
      "Chairman": 8926,
      "1975": 8927,
      "Ġassent": 8928,
      "àªľàª¨": 8929,
      "à´Ĥ,": 8930,
      "ĠHon": 8931,
      "Ġidentified": 8932,
      "à´¯à´Ļ": 8933,
      "Ġlow": 8934,
      "à¨Ĩà¨µ": 8935,
      "à¤ĵà¤°à¤¸": 8936,
      "Ġcogniz": 8937,
      "SA": 8938,
      "à¤Ĺà¤Ĺ": 8939,
      "Ġà°¸à°®": 8940,
      "Ġdivision": 8941,
      "à²°à²¨": 8942,
      "Ġà¨ľà¨°": 8943,
      "woZ": 8944,
      "PARTMENT": 8945,
      "à¦¬à¦¦": 8946,
      "Ġà¨¸à¨ªà¨²": 8947,
      "Ġpropriet": 8948,
      "à´ļà´¤": 8949,
      "Ġpertaining": 8950,
      "kdkj": 8951,
      "Ġlds": 8952,
      "%ï¿½ï¿½ï¿½": 8953,
      "Ġvko": 8954,
      "Ġà¨ħà¨°à¨§à¨ķ": 8955,
      "ecom": 8956,
      "state": 8957,
      "à¨Īà¨ľ": 8958,
      "Ġmg": 8959,
      "Ġwithdrawal": 8960,
      "ĠGOVERNMENT": 8961,
      "ots": 8962,
      "ĠID": 8963,
      "&ï¿½ï¿½ï¿½": 8964,
      "Ġexpressly": 8965,
      "elve": 8966,
      "à¤ķà¤¬": 8967,
      "Ġsixty": 8968,
      "xic": 8969,
      "Ġsqu": 8970,
      "à¤¾\"": 8971,
      "Ġ(ï¿½": 8972,
      "Ġaccounting": 8973,
      "Ġpopulation": 8974,
      "595": 8975,
      "Ġà´«": 8976,
      "à¤¯à¤ľ": 8977,
      "Hkh": 8978,
      "argets": 8979,
      "Âŀ": 8980,
      "à¨°à¨µà¨°": 8981,
      "Ġenj": 8982,
      "Ġgross": 8983,
      "Ġà¨ķà¨¸": 8984,
      "Ġportal": 8985,
      "âĢįà¤¿": 8986,
      "Ġàªªàªķ": 8987,
      "Ġsuc": 8988,
      "Ġinternal": 8989,
      "¥ĥ": 8990,
      "ïģ§ïģ": 8991,
      "Ġaddressed": 8992,
      "Ġ89": 8993,
      "roval": 8994,
      "ĠSupply": 8995,
      "à¨¾à¨¿à©ĩ": 8996,
      "ĠRA": 8997,
      "He": 8998,
      "Schedule": 8999,
      "Ġpartnership": 9000,
      "ĠStanding": 9001,
      "ĠBefore": 9002,
      "à¨ĩà¨²": 9003,
      "ĠLegal": 9004,
      "Ġcouncil": 9005,
      "And": 9006,
      "à¨Ĩà¨Ĺ": 9007,
      "Ġheading": 9008,
      "ĠVIII": 9009,
      "Ãħ": 9010,
      "à®¯à®®": 9011,
      "à°¸à°°": 9012,
      "1973": 9013,
      "Ġ300": 9014,
      "Ġroads": 9015,
      "ĠTerritory": 9016,
      "Ġmeters": 9017,
      "ĠÙĪÛģ": 9018,
      "1100": 9019,
      "à¤ľà¤Ĺ": 9020,
      "à²®à²¨à²µ": 9021,
      "à¤°à¤£à¤£": 9022,
      "Ġà¨¿à©Ĥà©°": 9023,
      "Ġhusband": 9024,
      "fpr": 9025,
      "à¥Ģ;": 9026,
      "uries": 9027,
      "-ï¿½ï¿½": 9028,
      "ĠJURIS": 9029,
      "Ġpreviously": 9030,
      "ĠProperty": 9031,
      "oever": 9032,
      "ĠÑ¾": 9033,
      "ĠHy": 9034,
      "Ġbott": 9035,
      "Ġexpected": 9036,
      "Ġïģµ": 9037,
      "à¥¯": 9038,
      "Ġà¬¶": 9039,
      "ĠUnit": 9040,
      "Ġlab": 9041,
      "Ġà¨®à¨¦à¨°": 9042,
      "Ġurban": 9043,
      "Ġà«ª": 9044,
      "ĠBusiness": 9045,
      "Ġà¬Ĺ": 9046,
      "Ġchallenged": 9047,
      "à¤¯à¤¹à¤¸": 9048,
      "¨±": 9049,
      "render": 9050,
      "Ġ1945": 9051,
      "oked": 9052,
      "Ġdismissal": 9053,
      "à¤®à¤¶": 9054,
      "ĠlEc": 9055,
      "Ġexaminations": 9056,
      "à¨¤à¨Ĩà¨°": 9057,
      "Ġprohibited": 9058,
      "à©Ĥà©°,": 9059,
      "ĠMh": 9060,
      "osit": 9061,
      "Ġreporting": 9062,
      "à´ķà´®": 9063,
      "à¤«à¤°": 9064,
      ".ï¿½ï¿½": 9065,
      "Cons": 9066,
      "à°ħ": 9067,
      "ĠïĤ¶": 9068,
      "ustr": 9069,
      "that": 9070,
      ",ï¿½ï¿½": 9071,
      "Ġà¨ħà¨¤à¨¤": 9072,
      "Ġgriev": 9073,
      "Ġcorporation": 9074,
      "à¨¤à¨®à¨ķ": 9075,
      "iform": 9076,
      "Ġàª¤àª®": 9077,
      "Ã³": 9078,
      "EE": 9079,
      "ĠVis": 9080,
      "Ġwhereas": 9081,
      "PA": 9082,
      "Def": 9083,
      "à¤¿)": 9084,
      "Ġà¨ıà¨¯à¨¨": 9085,
      "1981": 9086,
      "hold": 9087,
      "Ġven": 9088,
      "angal": 9089,
      "Ġà¨¹à¨®": 9090,
      "Çĵ": 9091,
      "Ġavoid": 9092,
      "ĠHkw": 9093,
      "atic": 9094,
      "Ġphot": 9095,
      "Ġ78": 9096,
      "ĠPage": 9097,
      "Ġstrict": 9098,
      "ĠĖ": 9099,
      "Ġàª°àªľ": 9100,
      "¬¸": 9101,
      "Ġ:-": 9102,
      "Zp": 9103,
      "Ġdischarged": 9104,
      "Ġprotected": 9105,
      "à¨Łà¨²": 9106,
      "Ġà¦¸à¦®à§Ł": 9107,
      "Ġreservation": 9108,
      "à¥Ĭ": 9109,
      "Ġexcise": 9110,
      "ĠSocial": 9111,
      "RT": 9112,
      "Ġ69": 9113,
      "Ġ302": 9114,
      "1960": 9115,
      "Ġà¤°à¤ķ": 9116,
      "Ġadverse": 9117,
      "Ġabsolute": 9118,
      "Ġ112": 9119,
      "omatic": 9120,
      "Ġà¤¿à¤¿": 9121,
      "ĠManaging": 9122,
      "ELLATE": 9123,
      "à¨¤à¨°à¨£": 9124,
      "ĠForce": 9125,
      "âĢº": 9126,
      "Ġimpos": 9127,
      "Ġà°ħà°§": 9128,
      "Ġà¨¦à¨ľ": 9129,
      "ÏĤ": 9130,
      "Ġà¨ħà¨Ĺà¨¸à¨¤": 9131,
      "Ġà§¬": 9132,
      "Ġduration": 9133,
      "Ġà¤¬à¤¤": 9134,
      "Ġdkj": 9135,
      "qÃĢ": 9136,
      "1984": 9137,
      "à¦¨à¦§Îº": 9138,
      "Ġfer": 9139,
      "Ġinconsistent": 9140,
      "Ġà¤¹à¤°": 9141,
      "Ġsurface": 9142,
      "Ġconsign": 9143,
      "Ġà¦ıà¦ķÇħ": 9144,
      "Ã»": 9145,
      "Ġdispose": 9146,
      "Ġà¬¾": 9147,
      "Ġalone": 9148,
      "Ġinterfer": 9149,
      "ĠZilla": 9150,
      "ĠïĢ¦": 9151,
      "à¤¯à¤§": 9152,
      "ĠFamily": 9153,
      "Ġperiods": 9154,
      "ICE": 9155,
      "Ġattachment": 9156,
      "Ġpolling": 9157,
      "#ï¿½ï¿½ï¿½ï¿½": 9158,
      "ĠHkq": 9159,
      "à¨ĩà¨¨": 9160,
      "uting": 9161,
      "Ġà¨ªà¨¸": 9162,
      "à´¤à´¨": 9163,
      "forms": 9164,
      "DA": 9165,
      "ĠÙĪÚ©": 9166,
      "Ġackn": 9167,
      "ĠAdvisory": 9168,
      "à¤¸à¤ľ": 9169,
      "ĠIden": 9170,
      "á¾¹à®±": 9171,
      "UC": 9172,
      "Ġà¤ķà¤°à¤ķ": 9173,
      "habilitation": 9174,
      "à¨¬à¨ľ": 9175,
      "ĠThus": 9176,
      "chit": 9177,
      "Ġdup": 9178,
      "Ġà¤ľà¤¨à¤¯à¤®": 9179,
      "Ġ71": 9180,
      "à¬®à¬¬": 9181,
      "Ġexc": 9182,
      "ĠizR": 9183,
      "Ġsettled": 9184,
      "Ġà¨ĺà¨Ł": 9185,
      "Unz": 9186,
      "à¨¸à¨ķà¨°à¨£": 9187,
      "Ġlines": 9188,
      "à©ī": 9189,
      "Ġmisconduct": 9190,
      "Ġokys": 9191,
      "à¥įï¿½": 9192,
      "Ġregisters": 9193,
      "ĠAuthorities": 9194,
      "Ġà¤īà¤ł": 9195,
      "Ġà¤Īà¤ª": 9196,
      "Ġlwpuk": 9197,
      "ĠEnergy": 9198,
      "though": 9199,
      "Ġà¦īÐ«à¦°à¦¦": 9200,
      "name": 9201,
      "ĠGupta": 9202,
      "ĠInternational": 9203,
      "à¤¶à¤®": 9204,
      "Ġsample": 9205,
      "à²°à²µ": 9206,
      "ĠAUTHOR": 9207,
      "rig": 9208,
      "ĠJURISDICTION": 9209,
      "ĠÂ´": 9210,
      "Ġprescribe": 9211,
      "Ġstipulated": 9212,
      "à¤¬à¤¸": 9213,
      "emale": 9214,
      "Ġmonitoring": 9215,
      "eksa": 9216,
      "à´Ĺà´¤": 9217,
      "à¬³àŃŁ": 9218,
      "ĠMoh": 9219,
      "à¨µà¨¸à¨¥": 9220,
      "Ġà¨īà¨ļ": 9221,
      "Ñĳ": 9222,
      "Ďà¥ĩ": 9223,
      "ĠAffairs": 9224,
      "Ġïĥ®": 9225,
      "Ġdisease": 9226,
      "à©Ľà¨°": 9227,
      "à¬ı": 9228,
      "Ġmethods": 9229,
      "à¨¬à¨£": 9230,
      "Ġentrust": 9231,
      "ĠMumbai": 9232,
      "ĠØ¢": 9233,
      "NTS": 9234,
      "à¨Ĩà¨®": 9235,
      "Ġà¦¸à¦¹": 9236,
      "ww": 9237,
      "Ã¶Ã¶": 9238,
      "à¤Ķà¤°à¤¨": 9239,
      "ERB": 9240,
      "Ġ83": 9241,
      "ĠØ§Ú©": 9242,
      "Deputy": 9243,
      "----------------------------------------------------------------": 9244,
      "Ġàªľàª°": 9245,
      "ĠAIR": 9246,
      "mm": 9247,
      "Ġsecure": 9248,
      "pay": 9249,
      "à¤ĩà¤Ł": 9250,
      "à¦Ĺà¦¤": 9251,
      "Ġoffered": 9252,
      "Ġtranslated": 9253,
      "Ġpartner": 9254,
      "Ġï¿½ï¿½ï¿½ï¿½ï¿½ï¿½ï¿½ï¿½ï¿½ï¿½ï¿½ï¿½ï¿½ï¿½ï¿½ï¿½ï¿½ï¿½ï¿½ï¿½ï¿½ï¿½ï¿½ï¿½ï¿½ï¿½ï¿½ï¿½ï¿½ï¿½ï¿½ï¿½": 9255,
      "Ġattendance": 9256,
      "erals": 9257,
      "1977": 9258,
      "ĠAgriculture": 9259,
      "à¥ł": 9260,
      "Ġà¨®à¨¦": 9261,
      "ĠTA": 9262,
      "Ġjust": 9263,
      "à¤¯à¤¹à¤¹": 9264,
      "ĠLiqu": 9265,
      "lements": 9266,
      "ĠSal": 9267,
      "à¨ľà¨¤": 9268,
      "Ġbox": 9269,
      "ĠAPPELLATE": 9270,
      "Ġà´ĩà´¤": 9271,
      "ĠImp": 9272,
      "Ġoperate": 9273,
      "Ġconveyance": 9274,
      "ĠÃ¢": 9275,
      "Ġrelax": 9276,
      "à¤Īà¤Ń": 9277,
      "à¤¾à¤ĥ": 9278,
      "Ġà¤ªà¤¶": 9279,
      "Ġassociated": 9280,
      "Ġhist": 9281,
      "Ġimported": 9282,
      "Ġbills": 9283,
      "iw": 9284,
      "ye": 9285,
      "ĠfuE": 9286,
      "Éĩ": 9287,
      "ĠDo": 9288,
      "ĠSim": 9289,
      "à¤ıà¤ıà¤ķ": 9290,
      "gations": 9291,
      "ĠNotice": 9292,
      "600": 9293,
      "ĠBranch": 9294,
      "Do": 9295,
      "Ġàªĺ": 9296,
      "Ġstates": 9297,
      "Ġvoting": 9298,
      "Ġconce": 9299,
      "ĠxbZ": 9300,
      "Ġdesigned": 9301,
      "à¨ļà¨¸": 9302,
      "ckn": 9303,
      "date": 9304,
      "rn": 9305,
      "Ġvend": 9306,
      "Ġà¤Ńà¤°": 9307,
      "Ġrequisite": 9308,
      "\"\"": 9309,
      "ĠBook": 9310,
      "à¤¬à¤¢": 9311,
      "1974": 9312,
      "Ġliber": 9313,
      "Ġàªªàª¹": 9314,
      "ĠSAKA": 9315,
      "1966": 9316,
      "ĠCOMM": 9317,
      "ĠSy": 9318,
[...]
