{
  "version": "1.0",
  "truncation": null,
  "padding": null,
  "added_tokens": [
    {
      "id": 0,
      "content": "<pad>",
      "single_word": false,
      "lstrip": false,
      "rstrip": false,
      "normalized": false,
      "special": true
    },
    {
      "id": 1,
      "content": "<unk>",
      "single_word": false,
      "lstrip": false,
      "rstrip": false,
      "normalized": false,
      "special": true
    },
    {
      "id": 2,
      "content": "<s>",
      "single_word": false,
      "lstrip": false,
      "rstrip": false,
      "normalized": false,
      "special": true
    },
    {
      "id": 3,
      "content": "</s>",
      "single_word": false,
      "lstrip": false,
      "rstrip": false,
      "normalized": false,
      "special": true
    }
  ],
  "normalizer": null,
  "pre_tokenizer": {
    "type": "ByteLevel",
    "add_prefix_space": false,
    "trim_offsets": true,
    "use_regex": true
  },
  "post_processor": null,
  "decoder": {
    "type": "ByteLevel",
    "add_prefix_space": true,
    "trim_offsets": true,
    "use_regex": true
  },
  "model": {
    "type": "BPE",
    "dropout": null,
    "unk_token": "<unk>",
    "continuing_subword_prefix": null,
    "end_of_word_suffix": null,
    "fuse_unk": false,
    "byte_fallback": false,
    "ignore_merges": false,
    "vocab": {
      "<pad>": 0,
      "<unk>": 1,
      "<s>": 2,
      "</s>": 3,
      "!": 4,
      "\"": 5,
      "#": 6,
      "$": 7,
      "%": 8,
      "&": 9,
      "'": 10,
      "(": 11,
      ")": 12,
      "*": 13,
      "+": 14,
      ",": 15,
      "-": 16,
      ".": 17,
      "/": 18,
      "0": 19,
      "1": 20,
      "2": 21,
      "3": 22,
      "4": 23,
      "5": 24,
      "6": 25,
      "7": 26,
      "8": 27,
      "9": 28,
      ":": 29,
      ";": 30,
      "<": 31,
      "=": 32,
      ">": 33,
      "?": 34,
      "@": 35,
      "A": 36,
      "B": 37,
      "C": 38,
      "D": 39,
      "E": 40,
      "F": 41,
      "G": 42,
      "H": 43,
      "I": 44,
      "J": 45,
      "K": 46,
      "L": 47,
      "M": 48,
      "N": 49,
      "O": 50,
      "P": 51,
      "Q": 52,
      "R": 53,
      "S": 54,
      "T": 55,
      "U": 56,
      "V": 57,
      "W": 58,
      "X": 59,
      "Y": 60,
      "Z": 61,
      "[": 62,
      "\\": 63,
      "]": 64,
      "^": 65,
      "_": 66,
      "`": 67,
      "a": 68,
      "b": 69,
      "c": 70,
      "d": 71,
      "e": 72,
      "f": 73,
      "g": 74,
      "h": 75,
      "i": 76,
      "j": 77,
      "k": 78,
      "l": 79,
      "m": 80,
      "n": 81,
      "o": 82,
      "p": 83,
      "q": 84,
      "r": 85,
      "s": 86,
      "t": 87,
      "u": 88,
      "v": 89,
      "w": 90,
      "x": 91,
      "y": 92,
      "z": 93,
      "{": 94,
      "|": 95,
      "}": 96,
      "~": 97,
      "¡": 98,
      "¢": 99,
      "£": 100,
      "¤": 101,
      "¥": 102,
      "¦": 103,
      "§": 104,
      "¨": 105,
      "©": 106,
      "ª": 107,
      "«": 108,
      "¬": 109,
      "®": 110,
      "¯": 111,
      "°": 112,
      "±": 113,
      "²": 114,
      "³": 115,
      "´": 116,
      "µ": 117,
      "¶": 118,
      "·": 119,
      "¸": 120,
      "¹": 121,
      "º": 122,
      "»": 123,
      "¼": 124,
      "½": 125,
      "¾": 126,
      "¿": 127,
      "À": 128,
      "Á": 129,
      "Â": 130,
      "Ã": 131,
      "Ä": 132,
      "Å": 133,
      "Æ": 134,
      "Ç": 135,
      "È": 136,
      "É": 137,
      "Ê": 138,
      "Ë": 139,
      "Ì": 140,
      "Í": 141,
      "Î": 142,
      "Ï": 143,
      "Ð": 144,
      "Ñ": 145,
      "Ò": 146,
      "Ó": 147,
      "Ô": 148,
      "Õ": 149,
      "Ö": 150,
      "×": 151,
      "Ø": 152,
      "Ù": 153,
      "Ú": 154,
      "Û": 155,
      "Ü": 156,
      "Ý": 157,
      "Þ": 158,
      "ß": 159,
      "à": 160,
      "á": 161,
      "â": 162,
      "ã": 163,
      "ä": 164,
      "å": 165,
      "æ": 166,
      "ç": 167,
      "è": 168,
      "é": 169,
      "ê": 170,
      "ë": 171,
      "ì": 172,
      "í": 173,
      "î": 174,
      "ï": 175,
      "ð": 176,
      "ñ": 177,
      "ò": 178,
      "ó": 179,
      "ô": 180,
      "õ": 181,
      "ö": 182,
      "÷": 183,
      "ø": 184,
      "ù": 185,
      "ú": 186,
      "û": 187,
      "ü": 188,
      "ý": 189,
      "þ": 190,
      "ÿ": 191,
      "Ā": 192,
      "ā": 193,
      "Ă": 194,
      "ă": 195,
      "Ą": 196,
      "ą": 197,
      "Ć": 198,
      "ć": 199,
      "Ĉ": 200,
      "ĉ": 201,
      "Ċ": 202,
      "ċ": 203,
      "Č": 204,
      "č": 205,
      "Ď": 206,
      "ď": 207,
      "Đ": 208,
      "đ": 209,
      "Ē": 210,
      "ē": 211,
      "Ĕ": 212,
      "ĕ": 213,
      "Ė": 214,
      "ė": 215,
      "Ę": 216,
      "ę": 217,
      "Ě": 218,
      "ě": 219,
      "Ĝ": 220,
      "ĝ": 221,
      "Ğ": 222,
      "ğ": 223,
      "Ġ": 224,
      "ġ": 225,
      "Ģ": 226,
      "ģ": 227,
      "Ĥ": 228,
      "ĥ": 229,
      "Ħ": 230,
      "ħ": 231,
      "Ĩ": 232,
      "ĩ": 233,
      "Ī": 234,
      "ī": 235,
      "Ĭ": 236,
      "ĭ": 237,
      "Į": 238,
      "į": 239,
      "İ": 240,
      "ı": 241,
      "Ĳ": 242,
      "ĳ": 243,
      "Ĵ": 244,
      "ĵ": 245,
      "Ķ": 246,
      "ķ": 247,
      "ĸ": 248,
      "Ĺ": 249,
      "ĺ": 250,
      "Ļ": 251,
      "ļ": 252,
      "Ľ": 253,
      "ľ": 254,
      "Ŀ": 255,
      "ŀ": 256,
      "Ł": 257,
      "ł": 258,
      "Ń": 259,
      "à¤": 260,
      "à²": 261,
      "à°": 262,
      "à®": 263,
      "à¥": 264,
      "à´": 265,
      "à¨": 266,
      "à¦": 267,
      "àª": 268,
      "Ġà¤": 269,
      "à¯": 270,
      "à¥į": 271,
      "à¤¾": 272,
      "à±": 273,
      "à³": 274,
      "àµ": 275,
      "à¤¤": 276,
      "ti": 277,
      "à¯į": 278,
      "à¤°": 279,
      "à¤¯": 280,
      "on": 281,
      "à§": 282,
      "à¤¿": 283,
      "à«": 284,
      "he": 285,
      "Ġt": 286,
      "Ġà¨": 287,
      "Ġo": 288,
      "à¥ĩ": 289,
      "Ġof": 290,
      "à©": 291,
      "à¤ķ": 292,
      "Ġà²": 293,
      "Ġà°": 294,
      "à°¿": 295,
      "àµį": 296,
      "Ġ2": 297,
      "Ġà®": 298,
      "er": 299,
      "tion": 300,
      "Ġthe": 301,
      "in": 302,
      "à²¿": 303,
      "nd": 304,
      "Ġàª": 305,
      "Ġà¤ķ": 306,
      "à®¿": 307,
      "à®¤": 308,
      "Ġ1": 309,
      "Ġp": 310,
      "Ġà¦": 311,
      "à±į": 312,
      "à³į": 313,
      "re": 314,
      "à²°": 315,
      "à´ķ": 316,
      "02": 317,
      "ec": 318,
      "Ġa": 319,
      "à¤¨": 320,
      "à¤Ĥ": 321,
      "à²¾": 322,
      "ĠS": 323,
      "à°¾": 324,
      "à¥¤": 325,
      "à¥Ģ": 326,
      "Ġà¤ħ": 327,
      "Ġà´": 328,
      "à°°": 329,
      "à¦°": 330,
      "à¯ģ": 331,
      "ed": 332,
      "is": 333,
      "Ø§": 334,
      "ĠC": 335,
      "à´¿": 336,
      "àª¾": 337,
      "Ġà¤¸": 338,
      "à§ĩ": 339,
      "à²¯": 340,
      "à°Ĥ": 341,
      "à±ģ": 342,
      "à³ģ": 343,
      "en": 344,
      "le": 345,
      "ro": 346,
      "ur": 347,
      "us": 348,
      "Ġc": 349,
      "à®Ł": 350,
      "ection": 351,
      "es": 352,
      "à´°": 353,
      "à¦¾": 354,
      "Ġ202": 355,
      "ar": 356,
      "ÛĮ": 357,
      "à¤§": 358,
      "à¤ļ": 359,
      "à²¨": 360,
      "à¨¾": 361,
      "ĠI": 362,
      "Ġb": 363,
      "Ġf": 364,
      "Ġw": 365,
      "ĠØ": 366,
      "à¤·": 367,
      "à¤¸": 368,
      "à®©": 369,
      "à®ª": 370,
      "à´¾": 371,
      "à¨¿": 372,
      "à¦¿": 373,
      "à§į": 374,
      "à«į": 375,
      "al": 376,
      "an": 377,
      "or": 378,
      "à¤®": 379,
      "à¤²": 380,
      "à¤¹": 381,
      "à²ķ": 382,
      "à°¨": 383,
      "à°ķ": 384,
      "à®¯": 385,
      "à¥ĭ": 386,
      "àª°": 387,
      "Ġpro": 388,
      "Ġ2023": 389,
      "our": 390,
      "Ú©": 391,
      "à¤¦": 392,
      "à¤µ": 393,
      "à®°": 394,
      "à³Ĩ": 395,
      "àµģ": 396,
      "à©ĩ": 397,
      "Section": 398,
      "as": 399,
      "ri": 400,
      "und": 401,
      "Ġin": 402,
      "ĠÚ©": 403,
      "à¤Ń": 404,
      "à²¦": 405,
      "à®®": 406,
      "à®±": 407,
      "à®¾": 408,
      "à´Ł": 409,
      "à¦¯": 410,
      "àª¤": 411,
      "Ġà¤¨": 412,
      "à©Ģ": 413,
      "Ġ21": 414,
      "Øª": 415,
      "Ùħ": 416,
      "ÙĨ": 417,
      "Ġ4": 418,
      "Ġm": 419,
      "à¤£": 420,
      "à¤Ĺ": 421,
      "à²¤": 422,
      "à²Ĥ": 423,
      "à®ķ": 424,
      "à¥ģ": 425,
      "à´ª": 426,
      "à¨°": 427,
      "Ġà¤ª": 428,
      "à¤°à¤¤": 429,
      "ing": 430,
      "PC": 431,
      "The": 432,
      "hi": 433,
      "ĠN": 434,
      "à¤ĥ": 435,
      "à°²": 436,
      "à°Ł": 437,
      "à®µ": 438,
      "à´Ĥ": 439,
      "à¨¤": 440,
      "àª¨": 441,
      "àª¯": 442,
      "Ġà¤°": 443,
      "à±ĩ": 444,
      "tic": 445,
      "à«Ģ": 446,
      "à«ĩ": 447,
      "Ġà¨¦": 448,
      "ĠSC": 449,
      "ent": 450,
      "at": 451,
      "st": 452,
      "Ġd": 453,
      "Ġh": 454,
      "Ġund": 455,
      "à¤ª": 456,
      "à¤ľ": 457,
      "à°¤": 458,
      "à°¦": 459,
      "à°¯": 460,
      "à°¸": 461,
      "à®³": 462,
      "à´¤": 463,
      "à´¨": 464,
      "à´¯": 465,
      "à¨¼": 466,
      "à¦¤": 467,
      "à¦¨": 468,
      "àªµ": 469,
      "àªĤ": 470,
      "Ġà¨¨": 471,
      "à°¿à°Ĥ": 472,
      "Ġand": 473,
      "Ġunder": 474,
      "Ar": 475,
      "ab": 476,
      "ct": 477,
      "ic": 478,
      "ts": 479,
      "Ø±": 480,
      "ÛĴ": 481,
      "ĠJ": 482,
      "à²²": 483,
      "à²¸": 484,
      "à¨¨": 485,
      "à¨¹": 486,
      "à¦¼": 487,
      "Ġà¤¦": 488,
      "Ġà¤¹": 489,
      "à¯Ī": 490,
      "à«ĭ": 491,
      "Ġto": 492,
      "Ġà®ļ": 493,
      "ers": 494,
      "ndi": 495,
      "Ġ12": 496,
      "Ġà¤ħà¤§": 497,
      "ĠIndi": 498,
      "à¤Ĺà¤¤": 499,
      "87": 500,
      "97": 501,
      "am": 502,
      "gh": 503,
      "har": 504,
      "il": 505,
      "la": 506,
      "ow": 507,
      "ud": 508,
      "ÙĦ": 509,
      "Ûģ": 510,
      "âĢ": 511,
      "Ġ(": 512,
      "ĠA": 513,
      "ĠB": 514,
      "ĠH": 515,
      "ĠP": 516,
      "Ġe": 517,
      "Ġre": 518,
      "Ġis": 519,
      "à¤Ł": 520,
      "à°ľ": 521,
      "à´³": 522,
      "à´ļ": 523,
      "à¨¸": 524,
      "à¨ľ": 525,
      "àª®": 526,
      "Ġà¤Ĩ": 527,
      "Ġà¤ľ": 528,
      "à¯Ģ": 529,
      "à¤¾à¥¤": 530,
      "à±ĭ": 531,
      "àµĨ": 532,
      "à¤¤à¤°": 533,
      "à§ģ": 534,
      "Ġà²¨": 535,
      "Ġà°¨": 536,
      "Ġà°®": 537,
      "Ġàª¹": 538,
      "ĠSection": 539,
      "ĠCour": 540,
      "Ġbe": 541,
      "Ġfor": 542,
      "à®ªà®Ł": 543,
      "ticle": 544,
      "ĠSCC": 545,
      "Article": 546,
      "ĠIndia": 547,
      "00": 548,
      "202": 549,
      "82": 550,
      "IR": 551,
      "ati": 552,
      "and": 553,
      "ced": 554,
      "it": 555,
      "iv": 556,
      "li": 557,
      "rPC": 558,
      "su": 559,
      "ution": 560,
      "ure": 561,
      "ya": 562,
      "¨à¥": 563,
      "Ø¯": 564,
      "Ø²": 565,
      "ØŃ": 566,
      "ÙĪ": 567,
      "ÛĶ": 568,
      "Ġ3": 569,
      "ħà¦": 570,
      "à¤Ľ": 571,
      "à²¡": 572,
      "à²ª": 573,
      "à²µ": 574,
      "à²ľ": 575,
      "à°ļ": 576,
      "à¥¨à¥": 577,
      "à´®": 578,
      "à´±": 579,
      "à¨Ł": 580,
      "à¦®": 581,
      "à¦ķ": 582,
      "à¦Ľ": 583,
      "àªķ": 584,
      "àªľ": 585,
      "Ġà¤®": 586,
      "à³Ģ": 587,
      "ons": 588,
      "à©°": 589,
      "Ġà²®": 590,
      "Ġà²¸": 591,
      "Ġà°ª": 592,
      "Ġà®¨": 593,
      "Ġà®®": 594,
      "Ġàª¸": 595,
      "Ġàªķ": 596,
      "Ġà¤ķà¤°": 597,
      "Ġ187": 598,
      "à²°à²ķ": 599,
      "Ġà¤ħà¤¨": 600,
      "Ġà´ª": 601,
      "ĠCrPC": 602,
      "à±ģ.": 603,
      "ust": 604,
      "à´°à´ķ": 605,
      "ĠIPC": 606,
      "Ġby": 607,
      "Ġprov": 608,
      "à³Ĩ.": 609,
      "ĠÚ©ÛĴ": 610,
      "Ġ482": 611,
      "ĠNo": 612,
      "à¤ĥà¥¤": 613,
      "able": 614,
      "Ġex": 615,
      "ĠCourt": 616,
      "01": 617,
      "NS": 618,
      "av": 619,
      "ation": 620,
      "ain": 621,
      "ce": 622,
      "der": 623,
      "des": 624,
      "eti": 625,
      "ir": 626,
      "igh": 627,
      "ides": 628,
      "ld": 629,
      "ment": 630,
      "od": 631,
      "pp": 632,
      "qu": 633,
      "ted": 634,
      "tution": 635,
      "un": 636,
      "¤à¨¹": 637,
      "¨à§": 638,
      "¨à«": 639,
      "ªØŃ": 640,
      "Ġ5": 641,
      "ĠM": 642,
      "Ġg": 643,
      "Ġj": 644,
      "Ġer": 645,
      "ĠÙħ": 646,
      "Ġli": 647,
      "Ġà¥¨à¥": 648,
      "ħà¤Ń": 649,
      "łàª": 650,
      "à¤¡": 651,
      "à¤ħà¤Ń": 652,
      "à²£": 653,
      "à²§": 654,
      "à²Ĺ": 655,
      "à²ļ": 656,
      "à²Ń": 657,
      "à°¡": 658,
      "à°®": 659,
      "à°·": 660,
      "à®²": 661,
      "à®ļ": 662,
      "à¥Ĥ": 663,
      "à¥Ī": 664,
      "à´µ": 665,
      "à¨§": 666,
      "à¨®": 667,
      "à¨µ": 668,
      "à¨Ĩ": 669,
      "à¨ķ": 670,
      "à¦¬": 671,
      "à¦¸": 672,
      "à¦ľ": 673,
      "à¦Ł": 674,
      "àª¿": 675,
      "àªŁ": 676,
      "àªłàª": 677,
      "Ġà¤¯": 678,
      "Ġà¤Ĺ": 679,
      "à¯Ĩ": 680,
      "à¤¾,": 681,
      "à±Ĥ": 682,
      "àµĭ": 683,
      "titution": 684,
      "à¤°à¤ķ": 685,
      "à§Ģ": 686,
      "à§¨à§": 687,
      "à«¨à«": 688,
      "Ġth": 689,
      "Ġà¨¸": 690,
      "Ġà¨ķ": 691,
      "Ġà¨ľ": 692,
      "Ġà¨¤à¨¹": 693,
      "à©Ĥ": 694,
      "Ġà²ª": 695,
      "Ġà²µ": 696,
      "Ġà²ħ": 697,
      "Ġà°¹": 698,
      "Ġà°ļ": 699,
      "Ġà®ª": 700,
      "Ġà®µ": 701,
      "Ġà®ī": 702,
      "ĠàªĨ": 703,
      "Ġàªľ": 704,
      "Ġpre": 705,
      "Ġpers": 706,
      "Ġà¦¨": 707,
      "Ġà¦¸": 708,
      "Ġà¦¹": 709,
      "Ġà¦ķ": 710,
      "Ġà¦ħà¦": 711,
      "ren": 712,
      "à²°à²¤": 713,
      "à²°à²£": 714,
      "Ġan": 715,
      "Ġà´¸": 716,
      "Ġà´ħ": 717,
      "à°°à°¤": 718,
      "à¯ģ.": 719,
      "ish": 720,
      "ĠCons": 721,
      "à²¯à²¨": 722,
      "à³ģà²Ĥ": 723,
      "use": 724,
      "ustic": 725,
      "à´°à´¤": 726,
      "ÛĮØ§": 727,
      "Ġwas": 728,
      "ĠØ³": 729,
      "ĠØªØŃ": 730,
      "à¤·à¤£": 731,
      "à¤²à¤¯": 732,
      "àª°àª¤": 733,
      "àµģ.": 734,
      "rim": 735,
      "à®®à®©": 736,
      "à®±à®®": 737,
      "à®ķà®³": 738,
      "Ġà¤°à¤ķ": 739,
      "ate": 740,
      "ici": 741,
      "ĠJustic": 742,
      "harati": 743,
      "ĠAct": 744,
      "ĠBharati": 745,
      "ĠHigh": 746,
      "cedure": 747,
      "Ġàªķàª°": 748,
      "Ġprovides": 749,
      "etition": 750,
      "àªłàª³": 751,
      "Ġperson": 752,
      "ĠConstitution": 753,
      "ĠJustice": 754,
      "03": 755,
      "20": 756,
      "38": 757,
      "AIR": 758,
      "Civ": 759,
      "FIR": 760,
      "Fir": 761,
      "ac": 762,
      "ag": 763,
      "ail": 764,
      "ble": 765,
      "cc": 766,
      "cl": 767,
      "ces": 768,
      "ef": 769,
      "eg": 770,
      "eal": 771,
      "fe": 772,
      "ff": 773,
      "for": 774,
      "four": 775,
      "ge": 776,
      "ges": 777,
      "ho": 778,
      "me": 779,
      "mp": 780,
      "ned": 781,
      "ov": 782,
      "pre": 783,
      "ru": 784,
      "ran": 785,
      "ram": 786,
      "ta": 787,
      "te": 788,
      "tr": 789,
      "ter": 790,
      "ut": 791,
      "upre": 792,
      "ves": 793,
      "went": 794,
      "²à¨": 795,
      "Â§": 796,
      "Ø³": 797,
      "Ø¸": 798,
      "Ø¹": 799,
      "Ù¹": 800,
      "Ùģ": 801,
      "Ú¯": 802,
      "ĠD": 803,
      "ĠK": 804,
      "ĠO": 805,
      "ĠR": 806,
      "Ġv": 807,
      "Ġon": 808,
      "Ġhe": 809,
      "Ġà´ķ": 810,
      "ĠØ§": 811,
      "Ġen": 812,
      "Ġle": 813,
      "Ġri": 814,
      "ĠÙĨ": 815,
      "Ġst": 816,
      "Ġla": 817,
      "Ġsu": 818,
      "Ġqu": 819,
      "Ġà§¨à§": 820,
      "Ġà«¨à«": 821,
      "ĠFir": 822,
      "īà¤ļ": 823,
      "à¤¶": 824,
      "à¤ı": 825,
      "à¤īà¤ļ": 826,
      "à²·": 827,
      "à²¹": 828,
      "à²Ł": 829,
      "à°¥": 830,
      "à°§": 831,
      "à°ª": 832,
      "à°¹": 833,
      "à°Ĺ": 834,
      "à°Ń": 835,
      "à®£": 836,
      "à®´": 837,
      "à®ľ": 838,
      "à´¦": 839,
      "à´·": 840,
      "à´¹": 841,
      "à´ľ": 842,
      "à´Ń": 843,
      "à¨¦": 844,
      "à¦§": 845,
      "à¦Ĥ": 846,
      "à¦ļ": 847,
      "à¦Ń": 848,
      "àª£": 849,
      "àªª": 850,
      "àª·": 851,
      "àª¹": 852,
      "àªĹ": 853,
      "àªŃ": 854,
      "Ġà¤¤": 855,
      "Ġà¤§": 856,
      "Ġà¤µ": 857,
      "à¤¾.": 858,
      "à±Ģ": 859,
      "à±Ĩ": 860,
      "à³ĩ": 861,
      "àµĢ": 862,
      "àµĩ": 863,
      "à¤¤à¤®": 864,
      "à¯į.": 865,
      "à¤¯à¤ķ": 866,
      "à«Ĥ": 867,
      "Ġtwent": 868,
      "Ġà¨ª": 869,
      "Ġà¨®": 870,
      "Ġà¨¹": 871,
      "Ġà¨ħ": 872,
      "à©±": 873,
      "à©Ī": 874,
      "à©ĭ": 875,
      "Ġà²°": 876,
      "Ġà²¹": 877,
      "Ġà²ľ": 878,
      "Ġà°µ": 879,
      "Ġà°ķ": 880,
      "à°¿.": 881,
      "Ġ22": 882,
      "Ġà®¤": 883,
      "ine": 884,
      "inal": 885,
      "Ġàª®": 886,
      "Ġàª°": 887,
      "Ġ14": 888,
      "Ġ197": 889,
      "Ġ103": 890,
      "Ġ138": 891,
      "Ġpow": 892,
      "Ġà¦®": 893,
      "Ġà¦ľ": 894,
      "Ġal": 895,
      "Ġapp": 896,
      "Ġacc": 897,
      "ĠSan": 898,
      "ĠSupre": 899,
      "à°¾à°Ĥ": 900,
      "Ġà¤ħà¤°": 901,
      "Ġà´¨": 902,
      "Ġà´®": 903,
      "Ġà´ľ": 904,
      "à°°à°ķ": 905,
      "à¦°à¦¤": 906,
      "Ø§Øª": 907,
      "Ø§Ùħ": 908,
      "Ø§ÙĦ": 909,
      "ĠCod": 910,
      "àª¾.": 911,
      "àª¾àªĤ": 912,
      "Ġà¤¸à¤®": 913,
      "à§ĩà¥¤": 914,
      "à³ģ.": 915,
      "enc": 916,
      "urder": 917,
      "Ġco": 918,
      "Ġcon": 919,
      "Ġchar": 920,
      "Ġcla": 921,
      "à®Łà®©": 922,
      "est": 923,
      "Ġ2022": 924,
      "ari": 925,
      "arned": 926,
      "arran": 927,
      "ÛĮÛģ": 928,
      "ĠIn": 929,
      "Ġfund": 930,
      "Ġfram": 931,
      "Ġwri": 932,
      "Ġwit": 933,
      "Ġwarran": 934,
      "ĠØ¯": 935,
      "ala": 936,
      "à®¯à®°": 937,
      "Ġprocedure": 938,
      "ours": 939,
      "à¤µà¤§": 940,
      "ĠÚ©ÛĮ": 941,
      "à®±à®¤": 942,
      "à´Łà´¤": 943,
      "ÙĨØ¯": 944,
      "Ġ420": 945,
      "Ġmain": 946,
      "Ġmurder": 947,
      "à¤Ĺà¤°": 948,
      "hita": 949,
      "Ġdis": 950,
      "Ġhours": 951,
      "à¨¼à¨¾": 952,
      "ĠJud": 953,
      "à¦¼à§ĩ": 954,
      "Ġ123": 955,
      "Ġ125": 956,
      "ÙĦØ²": 957,
      "ĠBNS": 958,
      "ĠHon": 959,
      "ĠPetition": 960,
      "Ġàª¹àª¤": 961,
      "2024": 962,
      "Ø²Ø§": 963,
      "ÙĪØ±": 964,
      "Ġ302": 965,
      "à²ªà²¡": 966,
      "Ġà®®à®©": 967,
      "Ġà¤ķà¤°à¤¨": 968,
      "Ġà¤ķà¤°à¤£": 969,
      "Ġà¥¨à¥§": 970,
      "à¥Īà¥¤": 971,
      "à¨µà¨¨": 972,
      "Ġà¤Ĺà¤¯": 973,
      "Ġthat": 974,
      "à©Ĥà©°": 975,
      "Ġà²ħà²°": 976,
      "Ġà°¹à°ķ": 977,
      "ĠàªĨàªµ": 978,
      "Ġpres": 979,
      "Ġà¦¹à¦¯": 980,
      "Ġà¦ķà¦°": 981,
      "Ġà¦ħà¦§": 982,
      "Ġany": 983,
      "Ġà´ħà´¨": 984,
      "ĠØªØŃØª": 985,
      "riminal": 986,
      "ĠBharatiya": 987,
      "Ġàªķàª°àªµ": 988,
      "Ġpersonal": 989,
      "Civil": 990,
      "ffici": 991,
      "Ġlearned": 992,
      "Ġrigh": 993,
      "Ġlaw": 994,
      "ĠFirst": 995,
      "Ġtwenty": 996,
      "ĠSanhita": 997,
      "ĠSupreme": 998,
      "ĠCode": 999
    },
    "merges": [
      [
        "à",
        "¤"
      ],
      [
        "à",
        "²"
      ],
      [
        "à",
        "°"
      ],
      [
        "à",
        "®"
      ],
      [
        "à",
        "¥"
      ],
      [
        "à",
        "´"
      ],
      [
        "à",
        "¨"
      ],
      [
        "à",
        "¦"
      ],
      [
        "à",
        "ª"
      ],
      [
        "Ġ",
        "à¤"
      ],
      [
        "à",
        "¯"
      ],
      [
        "à¥",
        "į"
      ],
      [
        "à¤",
        "¾"
      ],
      [
        "à",
        "±"
      ],
      [
        "à",
        "³"
      ],
      [
        "à",
        "µ"
      ],
      [
        "à¤",
        "¤"
      ],
      [
        "t",
        "i"
      ],
      [
        "à¯",
        "į"
      ],
      [
        "à¤",
        "°"
      ],
      [
        "à¤",
        "¯"
      ],
      [
        "o",
        "n"
      ],
      [
        "à",
        "§"
      ],
      [
        "à¤",
        "¿"
      ],
      [
        "à",
        "«"
      ],
      [
        "h",
        "e"
      ],
      [
        "Ġ",
        "t"
      ],
      [
        "Ġ",
        "à¨"
      ],
      [
        "Ġ",
        "o"
      ],
      [
        "à¥",
        "ĩ"
      ],
      [
        "Ġo",
        "f"
      ],
      [
        "à",
        "©"
      ],
      [
        "à¤",
        "ķ"
      ],
      [
        "Ġ",
        "à²"
      ],
      [
        "Ġ",
        "à°"
      ],
      [
        "à°",
        "¿"
      ],
      [
        "àµ",
        "į"
      ],
      [
        "Ġ",
        "2"
      ],
      [
        "Ġ",
        "à®"
      ],
      [
        "e",
        "r"
      ],
      [
        "ti",
        "on"
      ],
      [
        "Ġt",
        "he"
      ],
      [
        "i",
        "n"
      ],
      [
        "à²",
        "¿"
      ],
      [
        "n",
        "d"
      ],
      [
        "Ġ",
        "àª"
      ],
      [
        "Ġà¤",
        "ķ"
      ],
      [
        "à®",
        "¿"
      ],
      [
        "à®",
        "¤"
      ],
      [
        "Ġ",
        "1"
      ],
      [
        "Ġ",
        "p"
      ],
      [
        "Ġ",
        "à¦"
      ],
      [
        "à±",
        "į"
      ],
      [
        "à³",
        "į"
      ],
      [
        "r",
        "e"
      ],
      [
        "à²",
        "°"
      ],
      [
        "à´",
        "ķ"
      ],
      [
        "0",
        "2"
      ],
      [
        "e",
        "c"
      ],
      [
        "Ġ",
        "a"
      ],
      [
        "à¤",
        "¨"
      ],
      [
        "à¤",
        "Ĥ"
      ],
      [
        "à²",
        "¾"
      ],
      [
        "Ġ",
        "S"
      ],
      [
        "à°",
        "¾"
      ],
      [
        "à¥",
        "¤"
      ],
      [
        "à¥",
        "Ģ"
      ],
      [
        "Ġà¤",
        "ħ"
      ],
      [
        "Ġ",
        "à´"
      ],
      [
        "à°",
        "°"
      ],
      [
        "à¦",
        "°"
      ],
      [
        "à¯",
        "ģ"
      ],
      [
        "e",
        "d"
      ],
      [
        "i",
        "s"
      ],
      [
        "Ø",
        "§"
      ],
      [
        "Ġ",
        "C"
      ],
      [
        "à´",
        "¿"
      ],
      [
        "àª",
        "¾"
      ],
      [
        "Ġà¤",
        "¸"
      ],
      [
        "à§",
        "ĩ"
      ],
      [
        "à²",
        "¯"
      ],
      [
        "à°",
        "Ĥ"
      ],
      [
        "à±",
        "ģ"
      ],
      [
        "à³",
        "ģ"
      ],
      [
        "e",
        "n"
      ],
      [
        "l",
        "e"
      ],
      [
        "r",
        "o"
      ],
      [
        "u",
        "r"
      ],
      [
        "u",
        "s"
      ],
      [
        "Ġ",
        "c"
      ],
      [
        "à®",
        "Ł"
      ],
      [
        "ec",
        "tion"
      ],
      [
        "e",
        "s"
      ],
      [
        "à´",
        "°"
      ],
      [
        "à¦",
        "¾"
      ],
      [
        "Ġ2",
        "02"
      ],
      [
        "a",
        "r"
      ],
      [
        "Û",
        "Į"
      ],
      [
        "à¤",
        "§"
      ],
      [
        "à¤",
        "ļ"
      ],
      [
        "à²",
        "¨"
      ],
      [
        "à¨",
        "¾"
      ],
      [
        "Ġ",
        "I"
      ],
      [
        "Ġ",
        "b"
      ],
      [
        "Ġ",
        "f"
      ],
      [
        "Ġ",
        "w"
      ],
      [
        "Ġ",
        "Ø"
      ],
      [
        "à¤",
        "·"
      ],
      [
        "à¤",
        "¸"
      ],
      [
        "à®",
        "©"
      ],
      [
        "à®",
        "ª"
      ],
      [
        "à´",
        "¾"
      ],
      [
        "à¨",
        "¿"
      ],
      [
        "à¦",
        "¿"
      ],
      [
        "à§",
        "į"
      ],
      [
        "à«",
        "į"
      ],
      [
        "a",
        "l"
      ],
      [
        "a",
        "n"
      ],
      [
        "o",
        "r"
      ],
      [
        "à¤",
        "®"
      ],
      [
        "à¤",
        "²"
      ],
      [
        "à¤",
        "¹"
      ],
      [
        "à²",
        "ķ"
      ],
      [
        "à°",
        "¨"
      ],
      [
        "à°",
        "ķ"
      ],
      [
        "à®",
        "¯"
      ],
      [
        "à¥",
        "ĭ"
      ],
      [
        "àª",
        "°"
      ],
      [
        "Ġp",
        "ro"
      ],
      [
        "Ġ202",
        "3"
      ],
      [
        "o",
        "ur"
      ],
      [
        "Ú",
        "©"
      ],
      [
        "à¤",
        "¦"
      ],
      [
        "à¤",
        "µ"
      ],
      [
        "à®",
        "°"
      ],
      [
        "à³",
        "Ĩ"
      ],
      [
        "àµ",
        "ģ"
      ],
      [
        "à©",
        "ĩ"
      ],
      [
        "S",
        "ection"
      ],
      [
        "a",
        "s"
      ],
      [
        "r",
        "i"
      ],
      [
        "u",
        "nd"
      ],
      [
        "Ġ",
        "in"
      ],
      [
        "Ġ",
        "Ú©"
      ],
      [
        "à¤",
        "Ń"
      ],
      [
        "à²",
        "¦"
      ],
      [
        "à®",
        "®"
      ],
      [
        "à®",
        "±"
      ],
      [
        "à®",
        "¾"
      ],
      [
        "à´",
        "Ł"
      ],
      [
        "à¦",
        "¯"
      ],
      [
        "àª",
        "¤"
      ],
      [
        "Ġà¤",
        "¨"
      ],
      [
        "à©",
        "Ģ"
      ],
      [
        "Ġ2",
        "1"
      ],
      [
        "Ø",
        "ª"
      ],
      [
        "Ù",
        "ħ"
      ],
      [
        "Ù",
        "Ĩ"
      ],
      [
        "Ġ",
        "4"
      ],
      [
        "Ġ",
        "m"
      ],
      [
        "à¤",
        "£"
      ],
      [
        "à¤",
        "Ĺ"
      ],
      [
        "à²",
        "¤"
      ],
      [
        "à²",
        "Ĥ"
      ],
      [
        "à®",
        "ķ"
      ],
      [
        "à¥",
        "ģ"
      ],
      [
        "à´",
        "ª"
      ],
      [
        "à¨",
        "°"
      ],
      [
        "Ġà¤",
        "ª"
      ],
      [
        "à¤°",
        "à¤¤"
      ],
      [
        "in",
        "g"
      ],
      [
        "P",
        "C"
      ],
      [
        "T",
        "he"
      ],
      [
        "h",
        "i"
      ],
      [
        "Ġ",
        "N"
      ],
      [
        "à¤",
        "ĥ"
      ],
      [
        "à°",
        "²"
      ],
      [
        "à°",
        "Ł"
      ],
      [
        "à®",
        "µ"
      ],
      [
        "à´",
        "Ĥ"
      ],
      [
        "à¨",
        "¤"
      ],
      [
        "àª",
        "¨"
      ],
      [
        "àª",
        "¯"
      ],
      [
        "Ġà¤",
        "°"
      ],
      [
        "à±",
        "ĩ"
      ],
      [
        "ti",
        "c"
      ],
      [
        "à«",
        "Ģ"
      ],
      [
        "à«",
        "ĩ"
      ],
      [
        "Ġà¨",
        "¦"
      ],
      [
        "ĠS",
        "C"
      ],
      [
        "en",
        "t"
      ],
      [
        "a",
        "t"
      ],
      [
        "s",
        "t"
      ],
      [
        "Ġ",
        "d"
      ],
      [
        "Ġ",
        "h"
      ],
      [
        "Ġ",
        "und"
      ],
      [
        "à¤",
        "ª"
      ],
      [
        "à¤",
        "ľ"
      ],
      [
        "à°",
        "¤"
      ],
      [
        "à°",
        "¦"
      ],
      [
        "à°",
        "¯"
      ],
      [
        "à°",
        "¸"
      ],
      [
        "à®",
        "³"
      ],
      [
        "à´",
        "¤"
      ],
      [
        "à´",
        "¨"
      ],
      [
        "à´",
        "¯"
      ],
      [
        "à¨",
        "¼"
      ],
      [
        "à¦",
        "¤"
      ],
      [
        "à¦",
        "¨"
      ],
      [
        "àª",
        "µ"
      ],
      [
        "àª",
        "Ĥ"
      ],
      [
        "Ġà¨",
        "¨"
      ],
      [
        "à°¿",
        "à°Ĥ"
      ],
      [
        "Ġa",
        "nd"
      ],
      [
        "Ġund",
        "er"
      ],
      [
        "A",
        "r"
      ],
      [
        "a",
        "b"
      ],
      [
        "c",
        "t"
      ],
      [
        "i",
        "c"
      ],
      [
        "t",
        "s"
      ],
      [
        "Ø",
        "±"
      ],
      [
        "Û",
        "Ĵ"
      ],
      [
        "Ġ",
        "J"
      ],
      [
        "à²",
        "²"
      ],
      [
        "à²",
        "¸"
      ],
      [
        "à¨",
        "¨"
      ],
      [
        "à¨",
        "¹"
      ],
      [
        "à¦",
        "¼"
      ],
      [
        "Ġà¤",
        "¦"
      ],
      [
        "Ġà¤",
        "¹"
      ],
      [
        "à¯",
        "Ī"
      ],
      [
        "à«",
        "ĭ"
      ],
      [
        "Ġt",
        "o"
      ],
      [
        "Ġà®",
        "ļ"
      ],
      [
        "er",
        "s"
      ],
      [
        "nd",
        "i"
      ],
      [
        "Ġ1",
        "2"
      ],
      [
        "Ġà¤ħ",
        "à¤§"
      ],
      [
        "ĠI",
        "ndi"
      ],
      [
        "à¤Ĺ",
        "à¤¤"
      ],
      [
        "8",
        "7"
      ],
      [
        "9",
        "7"
      ],
      [
        "a",
        "m"
      ],
      [
        "g",
        "h"
      ],
      [
        "h",
        "ar"
      ],
      [
        "i",
        "l"
      ],
      [
        "l",
        "a"
      ],
      [
        "o",
        "w"
      ],
      [
        "u",
        "d"
      ],
      [
        "Ù",
        "Ħ"
      ],
      [
        "Û",
        "ģ"
      ],
      [
        "â",
        "Ģ"
      ],
      [
        "Ġ",
        "("
      ],
      [
        "Ġ",
        "A"
      ],
      [
        "Ġ",
        "B"
      ],
      [
        "Ġ",
        "H"
      ],
      [
        "Ġ",
        "P"
      ],
      [
        "Ġ",
        "e"
      ],
      [
        "Ġ",
        "re"
      ],
      [
        "Ġ",
        "is"
      ],
      [
        "à¤",
        "Ł"
      ],
      [
        "à°",
        "ľ"
      ],
      [
        "à´",
        "³"
      ],
      [
        "à´",
        "ļ"
      ],
      [
        "à¨",
        "¸"
      ],
      [
        "à¨",
        "ľ"
      ],
      [
        "àª",
        "®"
      ],
      [
        "Ġà¤",
        "Ĩ"
      ],
      [
        "Ġà¤",
        "ľ"
      ],
      [
        "à¯",
        "Ģ"
      ],
      [
        "à¤¾",
        "à¥¤"
      ],
      [
        "à±",
        "ĭ"
      ],
      [
        "àµ",
        "Ĩ"
      ],
      [
        "à¤¤",
        "à¤°"
      ],
      [
        "à§",
        "ģ"
      ],
      [
        "Ġà²",
        "¨"
      ],
      [
        "Ġà°",
        "¨"
      ],
      [
        "Ġà°",
        "®"
      ],
      [
        "Ġàª",
        "¹"
      ],
      [
        "ĠS",
        "ection"
      ],
      [
        "ĠC",
        "our"
      ],
      [
        "Ġb",
        "e"
      ],
      [
        "Ġf",
        "or"
      ],
      [
        "à®ª",
        "à®Ł"
      ],
      [
        "tic",
        "le"
      ],
      [
        "ĠSC",
        "C"
      ],
      [
        "Ar",
        "ticle"
      ],
      [
        "ĠIndi",
        "a"
      ],
      [
        "0",
        "0"
      ],
      [
        "2",
        "02"
      ],
      [
        "8",
        "2"
      ],
      [
        "I",
        "R"
      ],
      [
        "a",
        "ti"
      ],
      [
        "a",
        "nd"
      ],
      [
        "c",
        "ed"
      ],
      [
        "i",
        "t"
      ],
      [
        "i",
        "v"
      ],
      [
        "l",
        "i"
      ],
      [
        "r",
        "PC"
      ],
      [
        "s",
        "u"
      ],
      [
        "u",
        "tion"
      ],
      [
        "u",
        "re"
      ],
      [
        "y",
        "a"
      ],
      [
        "¨",
        "à¥"
      ],
      [
        "Ø",
        "¯"
      ],
      [
        "Ø",
        "²"
      ],
      [
        "Ø",
        "Ń"
      ],
      [
        "Ù",
        "Ī"
      ],
      [
        "Û",
        "Ķ"
      ],
      [
        "Ġ",
        "3"
      ],
      [
        "ħ",
        "à¦"
      ],
      [
        "à¤",
        "Ľ"
      ],
      [
        "à²",
        "¡"
      ],
      [
        "à²",
        "ª"
      ],
      [
        "à²",
        "µ"
      ],
      [
        "à²",
        "ľ"
      ],
      [
        "à°",
        "ļ"
      ],
      [
        "à¥",
        "¨à¥"
      ],
      [
        "à´",
        "®"
      ],
      [
        "à´",
        "±"
      ],
      [
        "à¨",
        "Ł"
      ],
      [
        "à¦",
        "®"
      ],
      [
        "à¦",
        "ķ"
      ],
      [
        "à¦",
        "Ľ"
      ],
      [
        "àª",
        "ķ"
      ],
      [
        "àª",
        "ľ"
      ],
      [
        "Ġà¤",
        "®"
      ],
      [
        "à³",
        "Ģ"
      ],
      [
        "on",
        "s"
      ],
      [
        "à©",
        "°"
      ],
      [
        "Ġà²",
        "®"
      ],
      [
        "Ġà²",
        "¸"
      ],
      [
        "Ġà°",
        "ª"
      ],
      [
        "Ġà®",
        "¨"
      ],
      [
        "Ġà®",
        "®"
      ],
      [
        "Ġàª",
        "¸"
      ],
      [
        "Ġàª",
        "ķ"
      ],
      [
        "Ġà¤ķ",
        "à¤°"
      ],
      [
        "Ġ1",
        "87"
      ],
      [
        "à²°",
        "à²ķ"
      ],
      [
        "Ġà¤ħ",
        "à¤¨"
      ],
      [
        "Ġà´",
        "ª"
      ],
      [
        "ĠC",
        "rPC"
      ],
      [
        "à±ģ",
        "."
      ],
      [
        "us",
        "t"
      ],
      [
        "à´°",
        "à´ķ"
      ],
      [
        "ĠI",
        "PC"
      ],
      [
        "Ġb",
        "y"
      ],
      [
        "Ġpro",
        "v"
      ],
      [
        "à³Ĩ",
        "."
      ],
      [
        "ĠÚ©",
        "ÛĴ"
      ],
      [
        "Ġ4",
        "82"
      ],
      [
        "ĠN",
        "o"
      ],
      [
        "à¤ĥ",
        "à¥¤"
      ],
      [
        "ab",
        "le"
      ],
      [
        "Ġe",
        "x"
      ],
      [
        "ĠCour",
        "t"
      ],
      [
        "0",
        "1"
      ],
      [
        "N",
        "S"
      ],
      [
        "a",
        "v"
      ],
      [
        "a",
        "tion"
      ],
      [
        "a",
        "in"
      ],
      [
        "c",
        "e"
      ],
      [
        "d",
        "er"
      ],
      [
        "d",
        "es"
      ],
      [
        "e",
        "ti"
      ],
      [
        "i",
        "r"
      ],
      [
        "i",
        "gh"
      ],
      [
        "i",
        "des"
      ],
      [
        "l",
        "d"
      ],
      [
        "m",
        "ent"
      ],
      [
        "o",
        "d"
      ],
      [
        "p",
        "p"
      ],
      [
        "q",
        "u"
      ],
      [
        "t",
        "ed"
      ],
      [
        "t",
        "ution"
      ],
      [
        "u",
        "n"
      ],
      [
        "¤",
        "à¨¹"
      ],
      [
        "¨",
        "à§"
      ],
      [
        "¨",
        "à«"
      ],
      [
        "ª",
        "ØŃ"
      ],
      [
        "Ġ",
        "5"
      ],
      [
        "Ġ",
        "M"
      ],
      [
        "Ġ",
        "g"
      ],
      [
        "Ġ",
        "j"
      ],
      [
        "Ġ",
        "er"
      ],
      [
        "Ġ",
        "Ùħ"
      ],
      [
        "Ġ",
        "li"
      ],
      [
        "Ġ",
        "à¥¨à¥"
      ],
      [
        "ħ",
        "à¤Ń"
      ],
      [
        "ł",
        "àª"
      ],
      [
        "à¤",
        "¡"
      ],
      [
        "à¤",
        "ħà¤Ń"
      ],
      [
        "à²",
        "£"
      ],
      [
        "à²",
        "§"
      ],
      [
        "à²",
        "Ĺ"
      ],
      [
        "à²",
        "ļ"
      ],
      [
        "à²",
        "Ń"
      ],
      [
        "à°",
        "¡"
      ],
      [
        "à°",
        "®"
      ],
      [
        "à°",
        "·"
      ],
      [
        "à®",
        "²"
      ],
      [
        "à®",
        "ļ"
      ],
      [
        "à¥",
        "Ĥ"
      ],
      [
        "à¥",
        "Ī"
      ],
      [
        "à´",
        "µ"
      ],
      [
        "à¨",
        "§"
      ],
      [
        "à¨",
        "®"
      ],
      [
        "à¨",
        "µ"
      ],
      [
        "à¨",
        "Ĩ"
      ],
      [
        "à¨",
        "ķ"
      ],
      [
        "à¦",
        "¬"
      ],
      [
        "à¦",
        "¸"
      ],
      [
        "à¦",
        "ľ"
      ],
      [
        "à¦",
        "Ł"
      ],
      [
        "àª",
        "¿"
      ],
      [
        "àª",
        "Ł"
      ],
      [
        "àª",
        "łàª"
      ],
      [
        "Ġà¤",
        "¯"
      ],
      [
        "Ġà¤",
        "Ĺ"
      ],
      [
        "à¯",
        "Ĩ"
      ],
      [
        "à¤¾",
        ","
      ],
      [
        "à±",
        "Ĥ"
      ],
      [
        "àµ",
        "ĭ"
      ],
      [
        "ti",
        "tution"
      ],
      [
        "à¤°",
        "à¤ķ"
      ],
      [
        "à§",
        "Ģ"
      ],
      [
        "à§",
        "¨à§"
      ],
      [
        "à«",
        "¨à«"
      ],
      [
        "Ġt",
        "h"
      ],
      [
        "Ġà¨",
        "¸"
      ],
      [
        "Ġà¨",
        "ķ"
      ],
      [
        "Ġà¨",
        "ľ"
      ],
      [
        "Ġà¨",
        "¤à¨¹"
      ],
      [
        "à©",
        "Ĥ"
      ],
      [
        "Ġà²",
        "ª"
      ],
      [
        "Ġà²",
        "µ"
      ],
      [
        "Ġà²",
        "ħ"
      ],
      [
        "Ġà°",
        "¹"
      ],
      [
        "Ġà°",
        "ļ"
      ],
      [
        "Ġà®",
        "ª"
      ],
      [
        "Ġà®",
        "µ"
      ],
      [
        "Ġà®",
        "ī"
      ],
      [
        "Ġàª",
        "Ĩ"
      ],
      [
        "Ġàª",
        "ľ"
      ],
      [
        "Ġp",
        "re"
      ],
      [
        "Ġp",
        "ers"
      ],
      [
        "Ġà¦",
        "¨"
      ],
      [
        "Ġà¦",
        "¸"
      ],
      [
        "Ġà¦",
        "¹"
      ],
      [
        "Ġà¦",
        "ķ"
      ],
      [
        "Ġà¦",
        "ħà¦"
      ],
      [
        "re",
        "n"
      ],
      [
        "à²°",
        "à²¤"
      ],
      [
        "à²°",
        "à²£"
      ],
      [
        "Ġa",
        "n"
      ],
      [
        "Ġà´",
        "¸"
      ],
      [
        "Ġà´",
        "ħ"
      ],
      [
        "à°°",
        "à°¤"
      ],
      [
        "à¯ģ",
        "."
      ],
      [
        "is",
        "h"
      ],
      [
        "ĠC",
        "ons"
      ],
      [
        "à²¯",
        "à²¨"
      ],
      [
        "à³ģ",
        "à²Ĥ"
      ],
      [
        "us",
        "e"
      ],
      [
        "us",
        "tic"
      ],
      [
        "à´°",
        "à´¤"
      ],
      [
        "ÛĮ",
        "Ø§"
      ],
      [
        "Ġw",
        "as"
      ],
      [
        "ĠØ",
        "³"
      ],
      [
        "ĠØ",
        "ªØŃ"
      ],
      [
        "à¤·",
        "à¤£"
      ],
      [
        "à¤²",
        "à¤¯"
      ],
      [
        "àª°",
        "àª¤"
      ],
      [
        "àµģ",
        "."
      ],
      [
        "ri",
        "m"
      ],
      [
        "à®®",
        "à®©"
      ],
      [
        "à®±",
        "à®®"
      ],
      [
        "à®ķ",
        "à®³"
      ],
      [
        "Ġà¤°",
        "à¤ķ"
      ],
      [
        "at",
        "e"
      ],
      [
        "ic",
        "i"
      ],
      [
        "ĠJ",
        "ustic"
      ],
      [
        "har",
        "ati"
      ],
      [
        "ĠA",
        "ct"
      ],
      [
        "ĠB",
        "harati"
      ],
      [
        "ĠH",
        "igh"
      ],
      [
        "ced",
        "ure"
      ],
      [
        "Ġàªķ",
        "àª°"
      ],
      [
        "Ġprov",
        "ides"
      ],
      [
        "eti",
        "tion"
      ],
      [
        "àªłàª",
        "³"
      ],
      [
        "Ġpers",
        "on"
      ],
      [
        "ĠCons",
        "titution"
      ],
      [
        "ĠJustic",
        "e"
      ],
      [
        "0",
        "3"
      ],
      [
        "2",
        "0"
      ],
      [
        "3",
        "8"
      ],
      [
        "A",
        "IR"
      ],
      [
        "C",
        "iv"
      ],
      [
        "F",
        "IR"
      ],
      [
        "F",
        "ir"
      ],
      [
        "a",
        "c"
      ],
      [
        "a",
        "g"
      ],
      [
        "a",
        "il"
      ],
      [
        "b",
        "le"
      ],
      [
        "c",
        "c"
      ],
      [
        "c",
        "l"
      ],
      [
        "c",
        "es"
      ],
      [
        "e",
        "f"
      ],
      [
        "e",
        "g"
      ],
      [
        "e",
        "al"
      ],
      [
        "f",
        "e"
      ],
      [
        "f",
        "f"
      ],
      [
        "f",
        "or"
      ],
      [
        "f",
        "our"
      ],
      [
        "g",
        "e"
      ],
      [
        "g",
        "es"
      ],
      [
        "h",
        "o"
      ],
      [
        "m",
        "e"
      ],
      [
        "m",
        "p"
      ],
      [
        "n",
        "ed"
      ],
      [
        "o",
        "v"
      ],
      [
        "p",
        "re"
      ],
      [
        "r",
        "u"
      ],
      [
        "r",
        "an"
      ],
      [
        "r",
        "am"
      ],
      [
        "t",
        "a"
      ],
      [
        "t",
        "e"
      ],
      [
        "t",
        "r"
      ],
      [
        "t",
        "er"
      ],
      [
        "u",
        "t"
      ],
      [
        "u",
        "pre"
      ],
      [
        "v",
        "es"
      ],
      [
        "w",
        "ent"
      ],
      [
        "²",
        "à¨"
      ],
      [
        "Â",
        "§"
      ],
      [
        "Ø",
        "³"
      ],
      [
        "Ø",
        "¸"
      ],
      [
        "Ø",
        "¹"
      ],
      [
        "Ù",
        "¹"
      ],
      [
        "Ù",
        "ģ"
      ],
      [
        "Ú",
        "¯"
      ],
      [
        "Ġ",
        "D"
      ],
      [
        "Ġ",
        "K"
      ],
      [
        "Ġ",
        "O"
      ],
      [
        "Ġ",
        "R"
      ],
      [
        "Ġ",
        "v"
      ],
      [
        "Ġ",
        "on"
      ],
      [
        "Ġ",
        "he"
      ],
      [
        "Ġ",
        "à´ķ"
      ],
      [
        "Ġ",
        "Ø§"
      ],
      [
        "Ġ",
        "en"
      ],
      [
        "Ġ",
        "le"
      ],
      [
        "Ġ",
        "ri"
      ],
      [
        "Ġ",
        "ÙĨ"
      ],
      [
        "Ġ",
        "st"
      ],
      [
        "Ġ",
        "la"
      ],
      [
        "Ġ",
        "su"
      ],
      [
        "Ġ",
        "qu"
      ],
      [
        "Ġ",
        "à§¨à§"
      ],
      [
        "Ġ",
        "à«¨à«"
      ],
      [
        "Ġ",
        "Fir"
      ],
      [
        "ī",
        "à¤ļ"
      ],
      [
        "à¤",
        "¶"
      ],
      [
        "à¤",
        "ı"
      ],
      [
        "à¤",
        "īà¤ļ"
      ],
      [
        "à²",
        "·"
      ],
      [
        "à²",
        "¹"
      ],
      [
        "à²",
        "Ł"
      ],
      [
        "à°",
        "¥"
      ],
      [
        "à°",
        "§"
      ],
      [
        "à°",
        "ª"
      ],
      [
        "à°",
        "¹"
      ],
      [
        "à°",
        "Ĺ"
      ],
      [
        "à°",
        "Ń"
      ],
      [
        "à®",
        "£"
      ],
      [
        "à®",
        "´"
      ],
      [
        "à®",
        "ľ"
      ],
      [
        "à´",
        "¦"
      ],
      [
        "à´",
        "·"
      ],
      [
        "à´",
        "¹"
      ],
      [
        "à´",
        "ľ"
      ],
      [
        "à´",
        "Ń"
      ],
      [
        "à¨",
        "¦"
      ],
      [
        "à¦",
        "§"
      ],
      [
        "à¦",
        "Ĥ"
      ],
      [
        "à¦",
        "ļ"
      ],
      [
        "à¦",
        "Ń"
      ],
      [
        "àª",
        "£"
      ],
      [
        "àª",
        "ª"
      ],
      [
        "àª",
        "·"
      ],
      [
        "àª",
        "¹"
      ],
      [
        "àª",
        "Ĺ"
      ],
      [
        "àª",
        "Ń"
      ],
      [
        "Ġà¤",
        "¤"
      ],
      [
        "Ġà¤",
        "§"
      ],
      [
        "Ġà¤",
        "µ"
      ],
      [
        "à¤¾",
        "."
      ],
      [
        "à±",
        "Ģ"
      ],
      [
        "à±",
        "Ĩ"
      ],
      [
        "à³",
        "ĩ"
      ],
      [
        "àµ",
        "Ģ"
      ],
      [
        "àµ",
        "ĩ"
      ],
      [
        "à¤¤",
        "à¤®"
      ],
      [
        "à¯į",
        "."
      ],
      [
        "à¤¯",
        "à¤ķ"
      ],
      [
        "à«",
        "Ĥ"
      ],
      [
        "Ġt",
        "went"
      ],
      [
        "Ġà¨",
        "ª"
      ],
      [
        "Ġà¨",
        "®"
      ],
      [
        "Ġà¨",
        "¹"
      ],
      [
        "Ġà¨",
        "ħ"
      ],
      [
        "à©",
        "±"
      ],
      [
        "à©",
        "Ī"
      ],
      [
        "à©",
        "ĭ"
      ],
      [
        "Ġà²",
        "°"
      ],
      [
        "Ġà²",
        "¹"
      ],
      [
        "Ġà²",
        "ľ"
      ],
      [
        "Ġà°",
        "µ"
      ],
      [
        "Ġà°",
        "ķ"
      ],
      [
        "à°¿",
        "."
      ],
      [
        "Ġ2",
        "2"
      ],
      [
        "Ġà®",
        "¤"
      ],
      [
        "in",
        "e"
      ],
      [
        "in",
        "al"
      ],
      [
        "Ġàª",
        "®"
      ],
      [
        "Ġàª",
        "°"
      ],
      [
        "Ġ1",
        "4"
      ],
      [
        "Ġ1",
        "97"
      ],
      [
        "Ġ1",
        "03"
      ],
      [
        "Ġ1",
        "38"
      ],
      [
        "Ġp",
        "ow"
      ],
      [
        "Ġà¦",
        "®"
      ],
      [
        "Ġà¦",
        "ľ"
      ],
      [
        "Ġa",
        "l"
      ],
      [
        "Ġa",
        "pp"
      ],
      [
        "Ġa",
        "cc"
      ],
      [
        "ĠS",
        "an"
      ],
      [
        "ĠS",
        "upre"
      ],
      [
        "à°¾",
        "à°Ĥ"
      ],
      [
        "Ġà¤ħ",
        "à¤°"
      ],
      [
        "Ġà´",
        "¨"
      ],
      [
        "Ġà´",
        "®"
      ],
      [
        "Ġà´",
        "ľ"
      ],
      [
        "à°°",
        "à°ķ"
      ],
      [
        "à¦°",
        "à¦¤"
      ],
      [
        "Ø§",
        "Øª"
      ],
      [
        "Ø§",
        "Ùħ"
      ],
      [
        "Ø§",
        "ÙĦ"
      ],
      [
        "ĠC",
        "od"
      ],
      [
        "àª¾",
        "."
      ],
      [
        "àª¾",
        "àªĤ"
      ],
      [
        "Ġà¤¸",
        "à¤®"
      ],
      [
        "à§ĩ",
        "à¥¤"
      ],
      [
        "à³ģ",
        "."
      ],
      [
        "en",
        "c"
      ],
      [
        "ur",
        "der"
      ],
      [
        "Ġc",
        "o"
      ],
      [
        "Ġc",
        "on"
      ],
      [
        "Ġc",
        "har"
      ],
      [
        "Ġc",
        "la"
      ],
      [
        "à®Ł",
        "à®©"
      ],
      [
        "es",
        "t"
      ],
      [
        "Ġ202",
        "2"
      ],
      [
        "ar",
        "i"
      ],
      [
        "ar",
        "ned"
      ],
      [
        "ar",
        "ran"
      ],
      [
        "ÛĮ",
        "Ûģ"
      ],
      [
        "ĠI",
        "n"
      ],
      [
        "Ġf",
        "und"
      ],
      [
        "Ġf",
        "ram"
      ],
      [
        "Ġw",
        "ri"
      ],
      [
        "Ġw",
        "it"
      ],
      [
        "Ġw",
        "arran"
      ],
      [
        "ĠØ",
        "¯"
      ],
      [
        "al",
        "a"
      ],
      [
        "à®¯",
        "à®°"
      ],
      [
        "Ġpro",
        "cedure"
      ],
      [
        "our",
        "s"
      ],
      [
        "à¤µ",
        "à¤§"
      ],
      [
        "ĠÚ©",
        "ÛĮ"
      ],
      [
        "à®±",
        "à®¤"
      ],
      [
        "à´Ł",
        "à´¤"
      ],
      [
        "ÙĨ",
        "Ø¯"
      ],
      [
        "Ġ4",
        "20"
      ],
      [
        "Ġm",
        "ain"
      ],
      [
        "Ġm",
        "urder"
      ],
      [
        "à¤Ĺ",
        "à¤°"
      ],
      [
        "hi",
        "ta"
      ],
      [
        "Ġd",
        "is"
      ],
      [
        "Ġh",
        "ours"
      ],
      [
        "à¨¼",
        "à¨¾"
      ],
      [
        "ĠJ",
        "ud"
      ],
      [
        "à¦¼",
        "à§ĩ"
      ],
      [
        "Ġ12",
        "3"
      ],
      [
        "Ġ12",
        "5"
      ],
      [
        "ÙĦ",
        "Ø²"
      ],
      [
        "ĠB",
        "NS"
      ],
      [
        "ĠH",
        "on"
      ],
      [
        "ĠP",
        "etition"
      ],
      [
        "Ġàª¹",
        "àª¤"
      ],
      [
        "202",
        "4"
      ],
      [
        "Ø²",
        "Ø§"
      ],
      [
        "ÙĪ",
        "Ø±"
      ],
      [
        "Ġ3",
        "02"
      ],
      [
        "à²ª",
        "à²¡"
      ],
      [
        "Ġà®®",
        "à®©"
      ],
      [
        "Ġà¤ķà¤°",
        "à¤¨"
      ],
      [
        "Ġà¤ķà¤°",
        "à¤£"
      ],
      [
        "Ġà¥¨à¥",
        "§"
      ],
      [
        "à¥Ī",
        "à¥¤"
      ],
      [
        "à¨µ",
        "à¨¨"
      ],
      [
        "Ġà¤Ĺ",
        "à¤¯"
      ],
      [
        "Ġth",
        "at"
      ],
      [
        "à©Ĥ",
        "à©°"
      ],
      [
        "Ġà²ħ",
        "à²°"
      ],
      [
        "Ġà°¹",
        "à°ķ"
      ],
      [
        "ĠàªĨ",
        "àªµ"
      ],
      [
        "Ġpre",
        "s"
      ],
      [
        "Ġà¦¹",
        "à¦¯"
      ],
      [
        "Ġà¦ķ",
        "à¦°"
      ],
      [
        "Ġà¦ħà¦",
        "§"
      ],
      [
        "Ġan",
        "y"
      ],
      [
        "Ġà´ħ",
        "à´¨"
      ],
      [
        "ĠØªØŃ",
        "Øª"
      ],
      [
        "rim",
        "inal"
      ],
      [
        "ĠBharati",
        "ya"
      ],
      [
        "Ġàªķàª°",
        "àªµ"
      ],
      [
        "Ġperson",
        "al"
      ],
      [
        "Civ",
        "il"
      ],
      [
        "ff",
        "ici"
      ],
      [
        "Ġle",
        "arned"
      ],
      [
        "Ġri",
        "gh"
      ],
      [
        "Ġla",
        "w"
      ],
      [
        "ĠFir",
        "st"
      ],
      [
        "Ġtwent",
        "y"
      ],
      [
        "ĠSan",
        "hita"
      ],
      [
        "ĠSupre",
        "me"
      ],
      [
        "ĠCod",
        "e"
      ]
    ]
  }
}